/**
  ******************************************************************************
  * @file    network_data_params.c
  * @author  AST Embedded Analytics Research Platform
  * @date    Fri Jun 14 09:25:49 2024
  * @brief   AI Tool Automatic Code Generator for Embedded NN computing
  ******************************************************************************
  * Copyright (c) 2024 STMicroelectronics.
  * All rights reserved.
  *
  * This software is licensed under terms that can be found in the LICENSE file
  * in the root directory of this software component.
  * If no LICENSE file comes with this software, it is provided AS-IS.
  ******************************************************************************
  */

#include "network_data_params.h"


/**  Activations Section  ****************************************************/
ai_handle g_network_activations_table[1 + 2] = {
  AI_HANDLE_PTR(AI_MAGIC_MARKER),
  AI_HANDLE_PTR(NULL),
  AI_HANDLE_PTR(AI_MAGIC_MARKER),
};




/**  Weights Section  ********************************************************/
AI_ALIGNED(32)
const ai_u64 s_network_weights_array_u64[4245] = {
  0xbe9a8e0abe3ca2a1U, 0xbbbced03bd9faa37U, 0x3e2101453d835e90U, 0x3eb662ad3ed72c15U,
  0x3e43e3ad3ea14378U, 0x3d06e4533dd6c1e3U, 0xbe2f1c24beb41b7aU, 0xbe2e7ad13b4433aeU,
  0xbd8fe42fbe95267aU, 0xbdbb986dbde0beafU, 0x3de2c5f8bd9b4f9dU, 0xbe381a2d3e2adcb2U,
  0xbd2e44ddbd8d9546U, 0xbe67112bbec692e1U, 0x3e9f53503d37c85bU, 0xbe87a54fbe24dde0U,
  0x3e199d0d3d0575dfU, 0xbe9bf11b3e6d177dU, 0x3d5f8ea7bd0eb1c6U, 0x3e1215ec3e919ceaU,
  0xbc359ff4beaad7a5U, 0x3e1d76383e649f67U, 0xbdaffb8fbe04ab1fU, 0xbbd6b254be113027U,
  0xbd03b11c3da56180U, 0x3e0885bcbdabe162U, 0x3dd22bd73ddbbbc9U, 0xbe21ec4a3e426fdcU,
  0x3e4994c33e9ae584U, 0xbd503cf23e83fa87U, 0xbe1a7a20beac34f6U, 0xbe4c58183d2c11bbU,
  0xbf08ecd6bf169f8fU, 0xbefb7492beef121eU, 0xbe5f3d06bf12be76U, 0xbe993fd7be51c7d4U,
  0x3d11c509be8e0bbdU, 0xbd72dc8d3e0337f5U, 0xbebb62473d3c48a1U, 0xbdd00ce9bea3b2cfU,
  0x3d15a574bd1876d2U, 0xbee7922e3cb558bdU, 0xbd77880abf0ced4aU, 0x3e82d289bda1ebe5U,
  0x3e16c5133d9762ddU, 0xbccf2652bd982d21U, 0x3e840ff83e796293U, 0x3ea5ca0c3e75b541U,
  0xbdfda993bcd206e3U, 0x3e9bffca3e1cce29U, 0xbd536a973e181ee9U, 0x3e0954763d15b824U,
  0x3d8cd30ebd47c659U, 0x3de04f8c3e094274U, 0xbea7b891bd900c2eU, 0x3e0146f93e8762e7U,
  0xbeac075bbd336946U, 0x3e44056bbe9a2036U, 0xbe0b68fb3e471439U, 0xbe88a909bec2f5bcU,
  0x3d8e0bbe3e0dae91U, 0xbe8ec9b9bdb33c2fU, 0x3e1e0a3fbe0f6b81U, 0xbd0ad9e13d9130b9U,
  0xbdda5b5e3dd46d5fU, 0xbd90a0ef3dbb4218U, 0x3d3230a13ea14a8eU, 0x3e233505bb831616U,
  0x3e0659523dbd44d4U, 0x3e52c70b3e8f0469U, 0xbe97667bbe392fb3U, 0x3dae75b0be0c7ae0U,
  0xbe85ea283e7b46e9U, 0xbeb49283be820ed4U, 0xbe18299cbef28254U, 0xbe8eca55bd40f49cU,
  0xbda482f83d9dea27U, 0x3e23687abdbd38b1U, 0xbdfb2ee43df17dd0U, 0xbed1d5e73e74ea58U,
  0x3e58222e3e205829U, 0x3ea8c07abc9b2db5U, 0xbe8a3dfbbeae866fU, 0xbd28a3fdbe1cb0f6U,
  0xbdd3e5423e6a9f86U, 0xbdaf1d9f3d1e6bb8U, 0x3e40e5b6be6f2764U, 0xbde9428d3db03574U,
  0x3dbc1cfe3d2f7428U, 0xbe003e45be2c54ebU, 0x3e666385bde4d832U, 0xbe5b2c933e66a1e9U,
  0xbe9e9936bd0d7bb3U, 0x3eab43643d94fec1U, 0xbe11694bbeb40d7aU, 0x3c8e1a25bdba757bU,
  0xbe5a7b1c3ec1c573U, 0xbe989ff0be801ba9U, 0x3db50499b9b47f55U, 0xbbe012883e9c47fbU,
  0x3d0cadf0bd65cb4dU, 0x3dd8131dbe348dc7U, 0x3c6052263ec35f24U, 0xbf05650cbe1eb52aU,
  0xbdf6cd56be8eb8eaU, 0x3deb7a513e3d437eU, 0xbec813fdbeb200a0U, 0x3db1849bbe3f98a4U,
  0x3e63593a3e8e781dU, 0xbe3e41673e2bfdfbU, 0xb98875793e5645e3U, 0x3e574b423e32c4e2U,
  0x3c1f37633e0a0870U, 0xbe9e48cbbdce34fcU, 0xbdbb6b01be03cd89U, 0xbe8f2eb7bd3c7180U,
  0x3e92c63c3c259465U, 0xbe1da3863e5dbaf7U, 0x3ed46dfb3e130338U, 0x3e156af13ecd73d2U,
  0x3ec0be733cb993e6U, 0xbe9333a93e5c1c7aU, 0x3d860c79beb3f944U, 0xbe98c604be1d15caU,
  0x3bf269f3be7e9011U, 0xbe857fe7be45a111U, 0xbe24c020be47825aU, 0xbe750a74bdcdd67fU,
  0xbe2bc758be8f8c70U, 0xbe7ac8a1be31f53eU, 0xbb082eca3c38d6afU, 0x3d8c3ec7be2ce235U,
  0xbd73a4c5bc55c4e0U, 0xbdd1ffa0bd87fb0bU, 0x3e4abe553c687962U, 0x3dd56338bde576d4U,
  0xbdbe6594be715383U, 0xbe95d7af3bb2b80eU, 0xbd83285c3ba785ebU, 0x3d43dc29bdf40435U,
  0xbd062229be8d97a1U, 0xbe973066be5c78a3U, 0xbeb1fe543daac373U, 0xbd50ec22be22d8cdU,
  0xbc998f03be559b29U, 0xbddc08e4bebefe65U, 0xbd92fe7bbd4e005eU, 0xbedce08dbdf42394U,
  0xbe0f56d03d9061bcU, 0xbcc41786bd29f4bbU, 0xbdb462c0be3873f7U, 0xbbbb0b2cbc8731e7U,
  0xbe60a769bed16384U, 0xbe23fb60be824611U, 0x3e04c9e83c2dff19U, 0x3dc4f2013db8e5b0U,
  0xbcb123c9be16e949U, 0xbe1da6b93c551d04U, 0xbe924155bc3b768bU, 0x3e0256443ce7583fU,
  0xbcdb6e0a3c90f159U, 0xbe152057bdb7cf3aU, 0xbe80acd8bda75ae3U, 0x3c5462743d04fe93U,
  0xbd964f7dbdb30601U, 0xbe269fbebee02937U, 0xbc98e6d3bd956afaU, 0xbe3eee88be207529U,
  0x3d17b0adbdcce1fbU, 0x3dd01bb2bce7deffU, 0xbda9847abeba5e85U, 0x3de01fbebe8ce7a2U,
  0xbd9bdf24bd522a3bU, 0xbe6a6ab2bceb1038U, 0x3e14432b3dde2385U, 0x3b85cc29bd0c56e0U,
  0x3e8ac165be86acaaU, 0x3b3fc988be397ec9U, 0xbe089445bd47b8c0U, 0x3d061dc73e407eb4U,
  0xbd538f5cbda25b38U, 0xbd619bfabe4f5638U, 0xbd2c964b3d9ff081U, 0xbe5e14a5be2c8b0cU,
  0xbd78274cbde47652U, 0xbda24af3bc7c201dU, 0x3d85f6aebdfc8fdbU, 0xbdd7f13f3d18250aU,
  0xbd825a89bd8f0bfdU, 0x3e0508f7bdffe3baU, 0x3d4398da3e94332bU, 0x3e86056b3e1c0c3aU,
  0x3df41d493b748ac1U, 0xbdfe69bc3df5b391U, 0x3e30e541bb5537b2U, 0x3dd3871c3e438b11U,
  0x3dbb2e3ebdcd71f4U, 0x3dd1567abd0ae43dU, 0xbdeb00243e455b67U, 0x3e36c8403d12e0c3U,
  0x3e27d5973e7ca55dU, 0xbceda7503c470fa5U, 0x3dd8929f3daaad79U, 0xbd8952163d8d06c3U,
  0x3e55ef4fbe1891eeU, 0xba9a0bfbbd80f0dcU, 0xbd07fdc9be9e6a38U, 0xbc7fef7e3e30d124U,
  0x3dc892ddbd44220cU, 0xbd4377ec3c2db977U, 0x3cf98e083d84887aU, 0x3d719ae1be9c4dfaU,
  0xbcf2f1673dcbf2adU, 0x3e00aa0fbdd34a40U, 0xbdc4e6ca3b2a3546U, 0x3e3e7a463e04b648U,
  0x3d9cb67bbca11aa9U, 0x3e1085153c165dc3U, 0x3d46f3ab3e1dafe0U, 0x3e2bcb5abcd5ea8fU,
  0x3d0a64413e32001fU, 0x3d7f7117bd1cc427U, 0x3e1984c2bd843feaU, 0x3c82c2c43d4ca2e4U,
  0x3e2f0df93b83e084U, 0xbd3dbf3f3e23689eU, 0x3ca025193d17d9baU, 0x3de4f36fbdb4ac6eU,
  0x3d93b9b43e33b6a2U, 0x3e5b2ef4be0d8b1eU, 0x3d6db73f3dccb3bfU, 0xbe46ae7fbdb326e8U,
  0x3d1adff43d6cc65dU, 0x3d96b0b33db9f09bU, 0x3d258122be595915U, 0x3db3ea02bde010b3U,
  0xbe8ec097bd822affU, 0x3e0ad7c0bdace808U, 0x3d05cf79bc2ff9e6U, 0xbe0cb012ba81df4aU,
  0xbd306783bcb6d11fU, 0xbdbdb9053dae0b02U, 0x3dad1faa3cbe9833U, 0x3e3d184b3e4f9238U,
  0xbe0ab0493e273b76U, 0xbe216e62bd943533U, 0xbd57885d3d14f3d6U, 0x3d77c5183cb11e18U,
  0xbd8db8763d3ae49dU, 0x3c9838773e059dceU, 0xbe218804bc856aa0U, 0xbd0891d83c057e8fU,
  0xbd750168bde81997U, 0x3dbfe8693e2ec07bU, 0xbe2585ee3d849a4aU, 0xbd9d06573daab494U,
  0x3d57bac23dc9f5fbU, 0xbd54dff23d9c9910U, 0x3dff5fe13ceef226U, 0xbd311cd43c145867U,
  0xbd6e36f7be128cacU, 0x3d8b7cdfbd300bf3U, 0xbe27c0c4bddbb63bU, 0xbc1f97f2be007cc5U,
  0x3d2a72a73da619b7U, 0x3d08aa8a3c0487bfU, 0xbd14f2c73e318017U, 0xbe3be4a83dc3446cU,
  0xbdf67046be2d47dbU, 0x3e61390a3c99d2e9U, 0x3d9d2adabcfe7fd5U, 0x3e05b0d73db4f6f2U,
  0xbdd05c203d99351fU, 0xbe09d74c3e027d13U, 0x3e502e80be2f904dU, 0x3daab26c3c0b1a65U,
  0x3d6f2736bc282bacU, 0xbdc8d11dbd52d427U, 0xbe122dfdbcc5cffeU, 0x3ca4a8043cd37c9cU,
  0x3dc3380e3e0abcabU, 0x3d27fd06be54b166U, 0x3e02571bbcd20e1fU, 0xbe0573263df9d0afU,
  0x3e084331bdbbd8e3U, 0x3d65e6453ca051e8U, 0x3d326d8dbe450405U, 0xbd6093febda6f39cU,
  0xbd4563493e1bc3f3U, 0x3d960385bd851754U, 0xbe3031be3d924664U, 0xbd7740e33da8205cU,
  0xbeee843d3da4dd61U, 0xbadb14e73d6c5876U, 0xbd918da83e0314efU, 0xbcccd009bd6407dcU,
  0xbe213273be4e0356U, 0xbee6f4ce3b897c7bU, 0x3dd97e2abe5d66f4U, 0x3dec9d5f3d3f3354U,
  0x3d4c4becbe2e9e6dU, 0xbe73b6cfbead5d29U, 0xbe2ff1b2bdb6232aU, 0xbd830544bdb971a2U,
  0x3d9b7295bdecd6d4U, 0x3e803c0f3dfc321fU, 0xbe817fccbdfa5f90U, 0x3d878a87be160ab5U,
  0xbd9b0e88bd7a63b7U, 0xbd2b6cc3bdb80baeU, 0x3d4c708abd47b116U, 0xbbb64488bd08e13cU,
  0x3de3c72cbe5585c0U, 0xbd7cfdb03dd076a8U, 0xbe205365bcc16979U, 0xbe88f04fbd98992dU,
  0x3e8a8c81bded0155U, 0xbd9548d4be505a08U, 0x3d40e3f03e5b0825U, 0xbd53fc083df8dcb3U,
  0xbd5f3b8d3e53642dU, 0x3de9fa563c60bbd2U, 0xbe2687973da7bddbU, 0x3e4494473e9a2d27U,
  0x3de337b23ea1f67eU, 0xbcb541f33dc7e6faU, 0x3caa1a2c3e11348aU, 0xbe8358993d50651bU,
  0xbb1b9522be60a88aU, 0xbd37d2cf3df53579U, 0x3e1b8f64bc0e397aU, 0xbcd6934d3be92cfbU,
  0x3d69ead2beb2a0d1U, 0xbd4f8e5fbddbf011U, 0x3db5f440be1676ccU, 0x3c88f6ff3cebf9e8U,
  0xbd52e89d3deaa2edU, 0x3e344bb5be6511b2U, 0xbe6b1df4bd6f57b2U, 0x3da1cd5f3d7c4804U,
  0xbb95a2af3dd9af10U, 0xbddc96ec3d1c6f67U, 0x3e5fc3dbbe3f8fcaU, 0xbe1947ff3e0721c9U,
  0xbd5899fbbd636499U, 0xbe9085dc3dc03b9bU, 0x3e115889bcb71a57U, 0x3e0ae4383e13f00cU,
  0x3e0a84323e3e6e24U, 0xbe6f56783c1a0c2fU, 0xbe7e6c1fbd8a404bU, 0x3e60e7a63e16010dU,
  0xbd0acb2f3d10993cU, 0x3d5e6691be356bf3U, 0x3d2ece403c0db6cbU, 0xbcd6c39b3d1ee2c0U,
  0x3db6cd583e0ac254U, 0x3cd0898dbd8cf504U, 0xbd48e1403d7a52edU, 0xbdfd2c053dad5763U,
  0xbdd681283cfa8bf8U, 0x3d002ea13e2e3064U, 0xbe49957ebecfb1f1U, 0xbe9398b2bd863837U,
  0xbdf322de3e2c6e2eU, 0xbde49a4e3dbb12beU, 0xbe2951633c61a31dU, 0xbdd0439abe1c6885U,
  0xbe2404cfbe75ece6U, 0x3dca73e3bd99a430U, 0xbe9ecebf3bdea5baU, 0xbe17dcfabc0e2732U,
  0x3e2698fc3cb6b87dU, 0xbe53a5f8be185c5bU, 0x3d389b6abdbffdbdU, 0xbeb85860bd9519d3U,
  0xbdb4ba103d01d4a9U, 0x3e11b483bd6739bcU, 0xbdb0f094bcf3c3b9U, 0xbde10072be60c3f1U,
  0xbe88b6bb3dcc7d3dU, 0xbe48e281bddf6d89U, 0xbd32c1373e85df3eU, 0xbd30afd53d8ab689U,
  0xbd69931dbe342cb4U, 0x3a9e60dfbd661817U, 0xbbd9e5d4bdc37ab3U, 0xbe34402bbc4ec02dU,
  0xbd4e4bd93e2f0bcdU, 0xbe015e13bd822ddaU, 0xbdf2c16cbe307a19U, 0x3d4c6a953cdf825dU,
  0xbd4ee20fbe5250d7U, 0x3e0b7c2dbb54f0b4U, 0xbc89c2453e43e21cU, 0xbe2fc0c9bea7a472U,
  0x3e849ccabdc840eaU, 0x3e869e9cbf190534U, 0x3e5ebe683e07f638U, 0x3d7196e53e83fc81U,
  0xbe0076d6be720f4eU, 0x3e8d8001bee40487U, 0x3ec63e10bea1f81bU, 0x3c80a60d3ddfb7abU,
  0x3e1a679c3e542e51U, 0xbda3836cbba87a5eU, 0xbe2154d1be020a33U, 0x3ce97d20be81a169U,
  0xbeafe959be1a5e31U, 0xbe263dadbe544837U, 0x3dee7f4b3d4cede1U, 0x3c8f7755be1bb485U,
  0x3e32f35bbe0e7402U, 0xbddd50913e33ac7aU, 0x3de7a3dbbe2043beU, 0xbc1dd8a13dc0a579U,
  0x3db5980d3c42cf3fU, 0x3e5eec7f3d457c2eU, 0xbe2d5a89bd36d55fU, 0x3e6127b8bd025c89U,
  0xbdde66c33e156024U, 0x3e18d5f63dd53da8U, 0x3e263566be3f4060U, 0xbec2e93b3dd4c315U,
  0x3e798aa7bc472d98U, 0xbe416d533e998cf1U, 0xbd54b77dbe295405U, 0x3ea82865be99ffccU,
  0xbc812a073cfd98b3U, 0x3e14d03e3c1d58c2U, 0x3cd2a824be4da78bU, 0x3d8daafebd7af888U,
  0xbccd7e92be1724baU, 0xbeac4f58be7ae136U, 0xbe38577abdb3c0e4U, 0x3e0ac079bca21760U,
  0x3c8941733d45ae15U, 0x3d23c98dbe02ad11U, 0xbe98613cbca09d89U, 0xbdc8efb8bdb02699U,
  0xbc84d901bd098d2dU, 0xbda13e143d782053U, 0xbcc1b4ae3cb2d816U, 0xbeae1b73beca4ba2U,
  0x3d2bd2a23b061331U, 0xbe14a14c3d699245U, 0xbe6ddcf73dfc0bd1U, 0x3c8bcd79be4d0160U,
  0xbf2db3cebd1c2777U, 0x3e6b090fbe25f1c8U, 0x3bc5c7263d0582eeU, 0xbebe72dcbe834481U,
  0xbe0ce0c4be8634ffU, 0x3d8f5b87bdc81a04U, 0x3e0d3f46bdb291c9U, 0xbe148a6abd17329eU,
  0xbd3ed2713e06c7b0U, 0xbdb79c7bbe52abf2U, 0xbe1d82d8bdf8d34aU, 0xbe1b36dcbe82e0cdU,
  0xbd33c7fcbdbc07e8U, 0x3d1fb5f83e0bf979U, 0xbd9a1bf4bdda274fU, 0xbd5a59e5be0af23aU,
  0x3c1a6c38bcd23f2cU, 0xbe4a24e9bce762eeU, 0xba8d7cb0bd0567baU, 0xbe5348ab3d27bec5U,
  0xbe16b6dbbe3a3b34U, 0x3dc3673cbcfe33ddU, 0x3bdbfdd7bd494509U, 0x3df1e851be4ea53bU,
  0xbe2dacaabe24c9d4U, 0xbefc43a6bd9a70b8U, 0x3e70124cbd8f2f81U, 0x3e806304bcb413adU,
  0x3d7550d3be878999U, 0xbe830ef53d387697U, 0x3cbc032fbd088924U, 0x3de2a1b9be65159aU,
  0x3d0bdeabbe153c0dU, 0xbdc97bc8bd208b5bU, 0xbe70d80abd9a4c2dU, 0xbdce68d3bdb1b865U,
  0xbd7b9019be9cd16bU, 0x3d2c6c7bbde27c82U, 0xbdb2a34bbd9dd9daU, 0xbe0dd38d3e0cd4c6U,
  0x3dc6a665bd64a04bU, 0x3dc49c41be08d875U, 0x3df27b14bc9786d0U, 0x3e1d4707be031930U,
  0xbe0079f1bdf00962U, 0x3cd18e43bc18fe80U, 0x3e2fab7b3d45aa55U, 0x3e4676623e6baed1U,
  0x3d9cf7abbe4e487eU, 0xbdaa2d21be56be39U, 0xbd4d1fe6bd5a0144U, 0x3e1ea3183e31372bU,
  0x3e4abb443c5cd127U, 0xbd7b4c16be3ac19aU, 0xbd352e013de4aa51U, 0x3e257d12be223e2dU,
  0x3dee8ba8be06ba31U, 0xbe606af53d3e05b0U, 0x3dbf15b33e9832f0U, 0xbda4c414be8bf5b9U,
  0xbdc6ce9abd463ae9U, 0x3d4817b13d872b91U, 0xbdf0549f3d946724U, 0x3c6476583d0df72fU,
  0xbdda203cbec3bbbfU, 0xbe451615bdba2c53U, 0x3dadfc843d102256U, 0x3d193129bd079d24U,
  0x3e36c598be110b3fU, 0xbe2212e1bf0af0afU, 0xbdfc37bdbcca0279U, 0x3e956fe6bdad6cc3U,
  0xbcd6f8ce3deb8fd9U, 0x3e3998863e0ea5cfU, 0xbe2cbeaabe8f3376U, 0xbb3bef8d3dff09bfU,
  0x3e7050e93dbea4e0U, 0xbde2a1743d272032U, 0xbd365fd33dce2c54U, 0xbd90b5393bd1d29aU,
  0x3e24ca293e4cb69bU, 0x3d2e48573d528cf2U, 0x3de89c85bc84e24fU, 0x3e739b593cc9a332U,
  0xbe2880e53cc0538aU, 0xbe51cb603e6eb6ffU, 0x3e485dc6be4edc47U, 0x3dd0fc04bbd09b08U,
  0x3cb154bcbdce97daU, 0xbea56a5bb8747867U, 0xbe8754e0bd7ba6f0U, 0x3e9a00a7be4d2cefU,
  0x3c1364563e76496fU, 0xbd461942bea7da98U, 0xbde76fcbbe72644dU, 0xbe869baa3df09369U,
  0x3e8af219be166065U, 0xbe286dd23e4b449cU, 0xbd54802fbdf8da15U, 0xbe1c93aabd88661dU,
  0xbdb227c43e1d4008U, 0xbd5dfc9dbda233b0U, 0xbcdb7b7dbbd87c99U, 0x3d317498be6d18eeU,
  0xbe2913a53db2ac7aU, 0x3d7bbb113dc961a7U, 0xbd0ed8143d9a7e3fU, 0x3e1b6b0ebd45f5f0U,
  0xbddf25c0be38a574U, 0xbce57d09bc3a1324U, 0xbe813aaa3e323af2U, 0xbd9a8570bead82a0U,
  0x3e6c77e03c93fc99U, 0xbdb62e32be889a5aU, 0xbe2c7a5cbd927650U, 0xbb17d6b03b352a2bU,
  0xbd9a41a6be86b487U, 0xbcb88e68bd556bcbU, 0xbd589b6dbe9a2301U, 0xbd8c6e4bbd8b399eU,
  0xbe81c2f23e18b184U, 0x3cfbb9d8be466378U, 0xbd87362e3bc10c62U, 0xbdb0ffc2bd8d1eadU,
  0x3c97c5153e02ef2bU, 0xbc71fbaf3cc23375U, 0x3dcb81e3be7df123U, 0xbd4e2c3b3e4d87adU,
  0xbdc02e7bbd45acc2U, 0xbc9f1de53e7779c4U, 0x3dd15c97bccf74b8U, 0x3d5d9b81bdcfb77fU,
  0x3de0e60fbc24c172U, 0xbf200848bdfba126U, 0x3db9c7e3be7dfef1U, 0x3def82afbdd78e46U,
  0x3d39c6f1be1f17f1U, 0x3cb924e03da2b949U, 0xbea514c7bdb8e0cbU, 0x3e2f33a1bd7dff9eU,
  0x3dfc2032bd13f840U, 0x3d59b945be2e6570U, 0xbd5fa99d3df7230fU, 0xbe23e5b43e0c29bdU,
  0x3da095123dcb5007U, 0xbcaf0053bdcb4f12U, 0x3e05ad4bbe17e7d7U, 0x3d8ca3ba3ea1269fU,
  0xbd9832393dfbc792U, 0x3bc95f1c3e3f3db2U, 0x3decbc73be3e2b5bU, 0xbd20ca71be8cf6cfU,
  0x3b03c6cabbbe8b06U, 0xbdad00113d045031U, 0x3d654bd73e51434aU, 0xbd4489aebce6590fU,
  0xbe19be61be0efd35U, 0xbdceffa4bd5bd09cU, 0x399628103e08059eU, 0xbe1aef69be1a9ccdU,
  0xbd40848d3c057451U, 0xbe55827bbcf943d9U, 0xbe5770a73da30d98U, 0xbe1cbeb23d36420aU,
  0xbd348d32bd5b0e60U, 0xbec80c48be6405efU, 0xbbbdf4643debcb06U, 0xbd3cc6b93c8cd264U,
  0xbbb04aa23e17b4b9U, 0x3c63525dbe0ac4c8U, 0xbe1f4ab3bd26f5e0U, 0x3e1f143ebe048412U,
  0xbdf0b5b93cb82a99U, 0x3d4f82813c0b3233U, 0xbd03e58c3d637c1bU, 0x3ad978afbe61b8d6U,
  0x3ea08a753d003939U, 0xbe7d1dd83d866ba9U, 0xbd45eb86bde7123cU, 0x3d878e713cfa8183U,
  0xbe335e1bbdc12b5bU, 0x3df9085fbca087e0U, 0xbd18a8943e23b4e3U, 0x3ccdfbeabe658cb4U,
  0x3eaaedbb3c7ec681U, 0xbd585dc1badfd782U, 0x3d1e79123ced92c8U, 0x3df06eea3e08e67cU,
  0xbc3a83d9be80c1fdU, 0x3cdfc410bdda6ce8U, 0xbdc2496dbc9c6376U, 0xbc105749bde27bbfU,
  0xbe05358e3e2e1356U, 0xbd25ff0abe5e8100U, 0x3de723653e1e71d1U, 0x3c7ae50cbaee11ddU,
  0x3d1c2bbfbd5f8fb6U, 0xbdfd612c3e12651fU, 0xbb56ec03be345389U, 0x3dd3bda33e7cf07eU,
  0x3e4ac4423e028c76U, 0x3dec1e713d487a9cU, 0xbdef56acbd62d7a6U, 0x3ddae7acbe7ceb51U,
  0x3d8a68fdbd33622eU, 0x3e40a0bf3e33a6cfU, 0xbdaacce33dbd9adcU, 0xbd8e26ba3e8fcc1eU,
  0xbe1a8ef93e0d7b52U, 0x3ea285073d8bed15U, 0xbc85d603bd495239U, 0x3d356fbfbd02439aU,
  0xbe50d2b23e3112faU, 0xbe5d3c5d3d72e86aU, 0x3e7e9f793d88f4feU, 0xbd3d49f4bd055341U,
  0xbd009f18be51d840U, 0xbe0326573dd5b465U, 0xbd4662993d320d86U, 0x3e6c7f503d291110U,
  0x3e02ed693e359240U, 0xbd1a9b98bd8c23edU, 0x3db941b13e4ac7c1U, 0xba91a9debd134aaeU,
  0x3dbb21833de230d5U, 0x3e046a803cbb07bdU, 0x3cf18cf53dc24c9fU, 0x3dc82e083dba7a84U,
  0x3d7577f43c0c055eU, 0x3d34afddbcb64d95U, 0x3e0e08c2be1fc0d9U, 0x3d2dac0ebccc8273U,
  0x3e33610fbb209169U, 0xbf106b6b3d5eceacU, 0x3d5d5ce13e1e14bcU, 0x3d5d13e3bd3958dcU,
  0x3d232f603b844b6cU, 0xbde9641ebcb13943U, 0xbef940173e1e4366U, 0x3dd26c99bcb1c550U,
  0xbd8a1f553da2892bU, 0xbe96a65cbdc8463eU, 0xbd3d13b6bcf414b2U, 0xbeaedf243e438545U,
  0x3daa1e14be2b456cU, 0xbd5396043e22aa85U, 0xbe7db666be33f14eU, 0x3c16bfe13bbb2494U,
  0xbe2804b93d5c3ff1U, 0xbc961dc93b62b593U, 0xbe1bf3863e0651b7U, 0xbe48f869bcb719d4U,
  0xbd41ba4f3d63b33fU, 0xbe3092a83da8bf14U, 0xbcd4c5b53e3d9c95U, 0xbd0a59a33d2c716bU,
  0xbdaa26b1bd9d19baU, 0x3d5a0d39be99a685U, 0xbde7823dbe307394U, 0xbe3074283d1cbd18U,
  0x3e2a8f963e83fa1cU, 0xbd8d11c6bbcced3aU, 0xbe4f8817be56395aU, 0xbe9b0ffbbda599c5U,
  0xbebbe47f3715acf1U, 0x3e1156c6bd9d737aU, 0xbf290b393dc1a9d3U, 0x3bd1554cbd9626eaU,
  0xbe2ac1d23c5d198eU, 0xbe3208c7bddb8834U, 0xbe870efbbe6e74a0U, 0xbe90d101bde538ccU,
  0xbd8087d53cfcf028U, 0xbf0fa0a03dbf5718U, 0x3dd1f98bbe17f4d2U, 0xbc9298cbbcf7be43U,
  0xbe988b9fbeec000aU, 0xbe23c5b43b46f632U, 0xbf1741123e186d0dU, 0x3b884253bd794ff4U,
  0xba8dd6f23de596f4U, 0xbeabf40abed4bbddU, 0xbd94480abd3f6716U, 0x3d95a82bbe3d4898U,
  0x3d89bd38be1c2febU, 0x3dab0d993e4d33d2U, 0xbe82d2083e61bc87U, 0xbecc031dbe9228faU,
  0xbc7a9473bdd87c4bU, 0xbe5a03403c48f512U, 0x3e9b70d43e6ebc8cU, 0xbee4d1253e44e074U,
  0xbe7629f1bdad6dafU, 0xbe2e8e73bdb2a232U, 0xbeb2aee13de31b65U, 0x3ccca30bbe90bc22U,
  0xbedcd4e43e371810U, 0xbe53b80bbdfa0422U, 0xbea08aac3e29d6e8U, 0x3df12a03be3df364U,
  0x3d993a27bd1d3b94U, 0xbf2a35ea3c7f526eU, 0xbea7107dbe21e2e6U, 0xbebc2e633e27c084U,
  0xbe1f7afbbd62cbbbU, 0x3e26bf27be309d6cU, 0xbf6ff3d0be5ecdc3U, 0xbc710bcc3e711ef1U,
  0xbd2c1826bd992062U, 0x3cbe90c33e66b7bbU, 0x3e342c7bbc8dd886U, 0xbdc332b5bdbb7110U,
  0xbdc06036bda05f49U, 0x3dc212cebe327410U, 0x3cb82d9a3e3f8ab6U, 0xbd4c10b73ea34485U,
  0xbe7cb5cbbc6b200aU, 0x3c6af055beb2ce97U, 0x3e111c49bef5a0b0U, 0xbda7a2d2bd835315U,
  0x3e0c75d13de842a8U, 0x3d612b393dbef984U, 0x3e6ab2f4bd806250U, 0xbd44c4afbe90600aU,
  0xbe1d13e63d6e1f56U, 0xbe188986bd8542acU, 0x3e748cfe3d274d40U, 0x3e69c0f43e00fddcU,
  0x3bef162abe64c736U, 0xbc5483933d0c35f2U, 0x3e8b675d3d5bf62bU, 0xbb11c960bbb1026dU,
  0x3d11cf0abea11ce2U, 0xbc1b60dbbd080a22U, 0xbe1f1170bdcc4439U, 0x3d7cebb13ded0502U,
  0xbe0ebbd1be40bf72U, 0x3e3a3861be42a983U, 0xbd35421abea5883aU, 0xbe85b8b03e48930cU,
  0xbd83366dbd83a1a5U, 0x3d9cf2de3c7ae9d4U, 0x3df6c0363d0b084eU, 0xbcb9e11bbd8c5acfU,
  0xbe3d55ee3e0cc519U, 0xbad312903c683fe3U, 0x3e1bd8cf3c08e15fU, 0xbddd798e3d6182ceU,
  0xbc732912bd8851b9U, 0xbd52c19a3e25a642U, 0x3d6d5f3bbd86bcb6U, 0xbd3cdc973d129615U,
  0x3e6a67c3bd9ed92dU, 0xbb6d3c5fbe830113U, 0xbdb3dfcebd4cd92aU, 0x3ddf6c27bdee574aU,
  0xbe5886473d9b548cU, 0xbd8c77843e142fe7U, 0xbe590577be6d54d0U, 0xbce50b61be032d60U,
  0xbe0623d2bd99c72dU, 0x3d8b504bbebeef72U, 0x3d8e75c63db60dfcU, 0xbe79c7c6bf0f2e4eU,
  0xbdeb29b43e355a96U, 0x3e1d88cd3df498daU, 0xbdb6f89bbe0dd1b0U, 0x3d8118873d747ee6U,
  0xbe3962bcbedfbd42U, 0xbe9993903e392b1aU, 0x3c926ec4bd6ca718U, 0xbdefb83c3da9de10U,
  0xbddf99b5be4693f9U, 0x3d088c74bdad8871U, 0xbed902373d9bb9b7U, 0x3e3cbbbdbe949c25U,
  0x3da751873ce69e9eU, 0x3e639783bd939391U, 0xbd97650abeb11663U, 0xbe2bd4c43d0a1f5fU,
  0xbe0a705bbd2e652aU, 0x3e8bcf43bd596201U, 0xbc8e62873e5a7e9cU, 0xbee5a035be89de09U,
  0x3dc6098a3db10517U, 0xbea488f9beac2a82U, 0x3c3ca98fbe715411U, 0x3def2f90bc5356eeU,
  0xbd09642ebee00e5fU, 0x3e0cfcbbbdbcb881U, 0x3e8bd06e3dc82a8cU, 0xbe32e024be848750U,
  0xbdaa88603dd9caf4U, 0x3e2b8659bee53241U, 0xbdc0734cbd003db6U, 0x3e53dbde3e2c03d4U,
  0xbe4340363e5093bcU, 0xbc90825c3c96228aU, 0x3db277debde34b4bU, 0xbe6599e2bc3f6b8dU,
  0x3da5fee33cda1b7bU, 0x3e8c995c3e2191e1U, 0x3da4b196bb9170ebU, 0x3c66f19dbc1109ccU,
  0xbd51ad803d2ce1a6U, 0xbe2a1c72be3653a7U, 0x3e1a12773d26f84dU, 0x3c309abc3e1d7701U,
  0xbe5ac1633daa8152U, 0x3cd529f0be14babbU, 0xbea042d8bde34e4eU, 0xbe0c3df63da6f7d4U,
  0x3d74a5e53cc47e6fU, 0xbdf8e1b9bdc91760U, 0x3e4d9518beb5a5f7U, 0xbe315a183dd74afcU,
  0xbe0e7317be211f00U, 0xbdc7c5e23d83d023U, 0x3e28c5c03ccdabceU, 0x3e34bc8bbe37130fU,
  0x3de5f5293c58feedU, 0x3d2af8493dd695d9U, 0xbe2c98313d96f265U, 0x3e8400b93d9dcaf1U,
  0x3e1af3e0bd44723cU, 0x3c21b8043e1c1c83U, 0x3d3e5d0c3dd18341U, 0xbe5054a43df61434U,
  0x3d2f790abe1445c4U, 0x3db381a8be0473f0U, 0x3d033f873e29b14cU, 0xbd284f593df93ee0U,
  0xbcd1cbad3b36d669U, 0xbef3104eba8ec1e1U, 0x3e829bf43d7a92f3U, 0xbe6064df3e3ec5fbU,
  0xbddf48673bcef18dU, 0xbe09d684bdd920c8U, 0xbe8cc748bc8fe07cU, 0x3e8ba591bd2e09d4U,
  0x3d3a2b903dea786cU, 0xbdc759813d81e840U, 0xbdf6dc2e3d6e7215U, 0xbe1e9eacbcd7dda0U,
  0x3e43d956bdbcdb50U, 0xbe33672a3d6a2a8dU, 0x3e0f04e1be5151fcU, 0x3d87b9cb3c8274bfU,
  0xbe1ac3a2bd12f2deU, 0x3e37f8b1bd10363aU, 0xbe4a87cfbd84367dU, 0x3e5ac4c5bebeb443U,
  0x3e91211e3e5d40c2U, 0xbec290703d277fbbU, 0x3e284d9abe11e382U, 0xbe173aa0be68d0d7U,
  0x3de27ea8becbbac3U, 0xbe908069be0eefbcU, 0x3c12a1ee3e3050baU, 0xbc6277adbe84829fU,
  0xbebded5e3bab6669U, 0xbdb1b50ebbebd50eU, 0xbea277f53d3bd6ccU, 0xbceba0393e8b756aU,
  0x3d78c005bec6053dU, 0xbdc7bf72bde52fbdU, 0xbd35e7783e1dd495U, 0xbebcb84b3e199301U,
  0x3c44217a3e6bc787U, 0xbce6a52bbeb2abdcU, 0xbd758af1be87e66fU, 0xbed8849c3e0af49dU,
  0xbe063e8b3e00e13aU, 0xbe737adc3e8f2949U, 0x3dd165cfbe760540U, 0xbd89a98ebe9fc463U,
  0xbeb68e6d3b53798aU, 0xbb88387bbc91f3cdU, 0xbe74ee3b3e97eedfU, 0x3d3443a1be0aaeccU,
  0xbd7ca7ffbeb5c315U, 0xbe434993be2383d5U, 0xbe723ebdbeba3d73U, 0x3e61d117bd4c56b8U,
  0xbe8494bfbe95c6cdU, 0xbec8d7e1bccbe401U, 0x3e14728c3d92c450U, 0xbd878d7dbe4c5216U,
  0x3e983205bcfb8f88U, 0xbe08a9b2bea4e5fdU, 0x3c347390bc4cf1deU, 0x3e1ba8ee3de3b20fU,
  0xbe86b4f6be926580U, 0x3e4fa2e53cf5aebcU, 0x3e06943fbe48179fU, 0xbdbab1293d874410U,
  0xbcd94ccd3e173701U, 0xbe669ba1be14dcd1U, 0x3df0addc3dec92ceU, 0x3de68f9ebe40341fU,
  0xbc97dc953c84c848U, 0xbdc904153e1dcef9U, 0xbdec323ebd8b74edU, 0x3df947023e29a0c5U,
  0xbdcbf578be4426f0U, 0x3da97f653bcbf2e5U, 0xbe80fcbe3e08f3aeU, 0xbc89b5ef3ddb7025U,
  0x3b75098fbc0b1e76U, 0xbb6c98653db227c7U, 0xbe16706c3e05667fU, 0x3e536ad83e0ccff1U,
  0x3e1c91d43da00c05U, 0x3dd17a14bcdc0607U, 0xbe01bf043b008300U, 0x3e08070b3db05028U,
  0x3e1d73d93d0d88ebU, 0x3daaeea13dffa0f0U, 0x3d413c373e0fc8d0U, 0xbd1f7a3a3e41944eU,
  0x3e39261abe22a1d9U, 0xbc26758d3dd3c75fU, 0xbde748e93d5aadfdU, 0x3e1fdee93cf9663aU,
  0x3df93e183de21ee6U, 0x3d57a9743e0087a1U, 0xbde514203de0a1beU, 0xbded50a93d903a58U,
  0x3ca918603e7fd1d9U, 0x3dc847fb3c874737U, 0x3d03b9203d0df67cU, 0xbb482fdd3de05adaU,
  0xbdb3ce7ebd75fe43U, 0xbde4d427bcfe1ec3U, 0x3bc31a5c3d748f7fU, 0x3ccb234f3e8d69e6U,
  0xbd9d0286be1696c4U, 0x3d7d014ebd6133cdU, 0x3c0410b3bddccd7aU, 0xbdd256e3bdad4607U,
  0x3dfad78a3e44a551U, 0xbb1b4503bdb6f1b6U, 0xbe2433cc3bd5954cU, 0x3d770bacbd0e1b53U,
  0xbe18f5a33de5308eU, 0x3d2eea373cfc7594U, 0x3dcedf7e3e00b4b2U, 0x3cea42ac3e3bdfd9U,
  0x3d8da894bda83278U, 0x3ba146b43d8102d2U, 0x3d81d8483e6c90aeU, 0x3d7cdc5f3e5876f3U,
  0xbe6d7fe23dfa836cU, 0xbd058f603d23a810U, 0xbdd6426abd299d2bU, 0x3de92f563d94fa0eU,
  0xbe12b90b3e291269U, 0xbbce29803e3a143eU, 0xbc9af00ebc5da07dU, 0xbe9d624cbd741bb1U,
  0x3e2fdb26be0e1053U, 0xbe0cd7753de4bdc8U, 0x3c4e3073bdd16495U, 0x3e506301bebe0b28U,
  0xbe448bd7be67cd7eU, 0x3e0f44f7bd3ab654U, 0xbd842da43dafd94aU, 0x3db9ebed3d603a92U,
  0x3e14597dbeb77bcbU, 0xbe347410bd5141aeU, 0xbe16ea0fbe83ebf7U, 0x3e9cf921bd2fff27U,
  0x3e947cd23ebd16f0U, 0xbcac8b36bd77813bU, 0x3c16221abda06cc3U, 0xbdb83ba9be11c12fU,
  0x3ebbe008be36fb05U, 0xbdc75c693eb760e4U, 0xbe6891483dac3e00U, 0x3ea005f43e142f50U,
  0x3e2895aabdf5d39cU, 0x3e6f0db8bdc08d54U, 0xbc9e988bbd06cb06U, 0x3e04829dbe285329U,
  0xbd7b49d9be68d09eU, 0x3d102dc53d133f2aU, 0xbbbaeb9c3d867e1aU, 0x3e2d827f3d842d88U,
  0xbd36e874bea79f48U, 0x3d774992bd70bb6aU, 0x3d874864bdab7116U, 0x3df139743cdb872dU,
  0x3b66705a3e083675U, 0xbe71072cbe3240f3U, 0x3dc77894bce7276fU, 0x3e06d9e9bd51f84eU,
  0x3d2c1a5ebd7f5a65U, 0xbe75f2213e288dcfU, 0xbda977843d3bcc8dU, 0x3d1a43173e19cf85U,
  0x3e024bb13caf297eU, 0x3cdc52a93aacef04U, 0xbed46d913d8f2a81U, 0x3ce27a793e1878d9U,
  0x3dfa08423c8c652eU, 0xbd517e17be1aa8a2U, 0xbdd12fb13dc6c1b4U, 0xbd3c3753bca4c17fU,
  0xbe99d32ebe5c1beaU, 0x3e238f7dbe7e5b2bU, 0x3e00102cbd85a9dcU, 0xbe86ef1abe23ae4dU,
  0xbd6eed8d3c440acfU, 0xbd3dc304be16b40bU, 0x3ddf572ebd8ebd0cU, 0x3e3236a83d151617U,
  0xbe4fbe133e4a737fU, 0xbe8488c53dd17ee4U, 0xbc1eb0133d805538U, 0x3da8a729be15fb89U,
  0x3d91a6fd3ddd0eeaU, 0x3c11f3733df6c3a3U, 0xbeb313cb3e0e66b2U, 0x3dae0fbf3d90e30aU,
  0x3ab34bd73d333460U, 0x3e0acada3e5d8cfbU, 0xbdf4b91a3dd2a42fU, 0xbf0bf034be2c5db4U,
  0x3c657c423deb981dU, 0xbe9e591bbc8de210U, 0xbd2b082c3e2cfbfdU, 0xbec112dc3d9e14f7U,
  0xbe20e050bd83414aU, 0x3d5a51aabcd6c60eU, 0x3d76ea86bec8f93bU, 0x3eb46c023d4f3fc8U,
  0xbee052743e8c22f4U, 0xbe57bd833d07d9a1U, 0xbdb654483b7649bdU, 0x3d89145bbe0f4f08U,
  0x3de7d5273af3a9cdU, 0xbd22da683e696b90U, 0xbe1568fb3e6e0f85U, 0xbda9dd153d1bdf34U,
  0x3da77861bd534871U, 0x3d847114bdb2aec6U, 0x3b33927ebd87c008U, 0xbe2a01d53d99c343U,
  0x3d532c3cbd3bb1b1U, 0xbc4894abbbcbd4d3U, 0x3e1ee3c03e0ff03eU, 0xbe64e5bfbc44a77eU,
  0xbe99fa07be089c60U, 0xbe1a1180be02c90fU, 0x3d3b2c613d310f43U, 0xbbf118d33da7215eU,
  0xbe3c400bbd698905U, 0xbe0ea52c3da02dc6U, 0x3e49219dbc509743U, 0x3cb97ad2be4abf19U,
  0x3e918aba3d7dc8a3U, 0x3d8f6b7f3e9ddcc7U, 0xbe3addef3d499f3fU, 0xbd11c01f3ca58ed9U,
  0xbdfdec4bbd1c96bfU, 0x3c909975bdac8341U, 0x3e0499d23db38e85U, 0xbdf45f8b3e07677bU,
  0xbe648f06bc588fdfU, 0xbdf54b0d3d71e326U, 0xbde6e73a3d2f5776U, 0x3d412caf3c5cb755U,
  0xbc91db053da724dcU, 0xbd12e729be710135U, 0x3cd3536cbddd7c45U, 0xbd50bf463e8df063U,
  0xbd0521c5be8a72edU, 0xbe17a1b3bd5f9372U, 0xbdcb5797be1f5f7cU, 0xbd0419b13db7ae5fU,
  0xbd6c7858bd7f136fU, 0xbe6f4e0fbd1e1b5dU, 0xbe3bc899be202b86U, 0xbcd57fa7be1ba498U,
  0xbd95f801bd9b3201U, 0xbe353882bc13b6ddU, 0x3c849bd3bc853422U, 0x3a67afb4bd55e889U,
  0x3cfe219ebe41bf14U, 0x3e1c1a7dbbbef193U, 0x3bae09e73d07be5bU, 0xbceba76cbd192ff1U,
  0x3e5d7848be3f6a2aU, 0x3d9d9eeebe4b7c87U, 0x3d4cc30abe324448U, 0x3e55219b3c19c06eU,
  0xbdb7eee63db8c0daU, 0x3ec02dd2bdac2612U, 0x3d095d72be2539e7U, 0xbe2d9f823e20f4fcU,
  0x3da8cb9cbe00edbdU, 0x3d982b50bd20944fU, 0x3bd647463d849572U, 0x3cb7044bbe49ecdeU,
  0xbdb405263e261a7bU, 0x3de29047bdacd037U, 0x3e576845bdecbc10U, 0xbe16893e3d28d8e9U,
  0x3dc332633db3a103U, 0x3d8bca48bdd19b8fU, 0xbe10f3933dd660fbU, 0xbe803296bd171836U,
  0xbc80626b3dd95300U, 0xbc9a8111bd10f042U, 0xbab884cebe3ba09aU, 0x3d485f4ebdf90f01U,
  0xbde0cc38bd5ff1e4U, 0x3e4376793b9d79a1U, 0xbe1333e7bc415702U, 0x3e31ac57bded79d2U,
  0xbd0bab42bdc9cf64U, 0x3d8a3cf3bdbb0723U, 0x3d14232abd001ac1U, 0xbe39ec1ebd910213U,
  0x3df7b01e3d173c32U, 0xbb3d6d543be7d9e4U, 0x3deb0476be9f3dfdU, 0xbe07827b3d7226a0U,
  0xbb8cde4ebda4eb0bU, 0x3c622cd93dd0d18cU, 0xbd553ed53e123d96U, 0x3e141702be0fd485U,
  0xbcce0c00bdf61c0bU, 0xbd06b14e3dfbc29bU, 0x3dff29debe565127U, 0xbdbb55a2bcdea6cdU,
  0xbd800656bc25be42U, 0xbd834f813c71639cU, 0x3d83a4073e0f24c3U, 0x3e58a570be6fd862U,
  0xbceeb5bcbdd72343U, 0x3c7c9c613e922548U, 0xbe74c9203d9714dcU, 0xbd2dfa303e443453U,
  0x3df7c112bdb133d7U, 0x3d0612fabd2a67dbU, 0xbd592c403e3f1b3aU, 0xbe8664d93e686f6fU,
  0xbccc19ec3e6d5db9U, 0x3d94f1c0bd604a22U, 0xbe371e1ebe95198eU, 0xbe53d736bcebf742U,
  0xbe236a213d275511U, 0xbec08173bc510499U, 0xbd7ac942be047bffU, 0xbe399859be2d9f19U,
  0x3db468d7beb52e2dU, 0xbe30731b3d9f5c79U, 0x3e6dec8c3e9deab6U, 0xbd90ad07be638f30U,
  0xbddcbd6ebd8bc422U, 0x3ccbf19e3e16a77bU, 0xbe17b9243c3e0448U, 0x3e7a76223eb0f194U,
  0x3ca7c142bea522e6U, 0xbe32dc933ba124d3U, 0xbdffea3f3e5f823aU, 0xbe76a051bdedd539U,
  0x3e9145403ea24fb6U, 0xbd7a9877be574f61U, 0x3caa3f33bc99fdfaU, 0x3df4b91f3e840b8bU,
  0xbd9b8db8be695fb5U, 0x3e761c68bc019de7U, 0xbe46a83fbe3932c3U, 0xbe1ae8bcbd611fdcU,
  0xbd0c9d163e2174afU, 0xbd494f7fbeaa9251U, 0xbe0b5152be185a12U, 0xbf07b97cbe19b6abU,
  0xbdcb0e75be49796bU, 0x3c49b73dbd963e2bU, 0x3d13e13638df75deU, 0x3db4b15bbe210675U,
  0xbd807e903bb24071U, 0x3dade628be4f0cccU, 0x3e0f5f4c3e82f216U, 0x3d0c819d3c98b63cU,
  0xbdb9d10cbc9d653bU, 0xbd27e53dbe0ed5a3U, 0xbd6db7e7be19cb62U, 0x3d6bb05dbdd5032dU,
  0xbcb5d3753d87b61eU, 0x3dbee32c3d514e37U, 0xbcf180efbe9544eaU, 0xbd0cde303e1f3000U,
  0x3cf0b1ebbdb262bfU, 0x3cd8ad04bd8b4ddbU, 0x3d84e5ccbd726f59U, 0xbd44d474bdab038fU,
  0xbd2c44453dcc219eU, 0x3ccdbe45baac023eU, 0xbd306c9bbe2bb7dcU, 0x3da3069dbe131206U,
  0xbc1325fa3e104a09U, 0x3d36f44abd4a523fU, 0x3e11bccc3d67a49aU, 0x3e1d35f03e236431U,
  0xbe244137bd714cebU, 0x3e12d019bdbdce46U, 0xbca3bd093e17220eU, 0x3d288b25be3f4716U,
  0x3c1565ab3ebd946bU, 0xbd5a30743d472834U, 0x3e077e243d046cb5U, 0x3d7751ab3da4a161U,
  0xbbaff33e3b46c76fU, 0x3e0202723e9d8e6cU, 0x3d6e62b63d5ad2f3U, 0x3e13ff9ebc17d8d2U,
  0x3dc10cfa3df60fdfU, 0x3c3d7844bb99fd77U, 0x3e19a4b93e82230bU, 0xbc73ddbfbdb2a541U,
  0x3d993b3dbc048ae1U, 0x3ce826ad3d9210fcU, 0x3cca86dc3de552f0U, 0x3d91953b3e3dbbdeU,
  0xbcf5f01cbd9e92e1U, 0x3df36a4cbd01e429U, 0xbca10e59bd5ae732U, 0x3db4eced3dee0439U,
  0x3ca27816be071b55U, 0xbdc15837bd955c35U, 0xbd6c271fbe0dbcf0U, 0xbc7c30adbe504a2eU,
  0xbd1d4ffabd13a2c5U, 0xbce6f24fbd3a5d6bU, 0x3d8b6df2bea8032eU, 0xbdb66d5d3db3ed1fU,
  0xbdcadb8dbe17469eU, 0x3e6533ccbdf2df52U, 0x3d2070db3e034f29U, 0xbd6d24ebbd1ebe67U,
  0x3e5cea2abc89a0d3U, 0xbe5632c63d186925U, 0x3e4cdb5cbea6b0d0U, 0xbe549c923e52a871U,
  0xbe882cf63e014976U, 0x3e67efe4bdb5bf71U, 0xbea166b13d07dc4dU, 0x3e87b7afbe3421bbU,
  0xbd22e5823e2ce293U, 0xbebc51473dc27f2cU, 0x3db7d4e8bddc7cedU, 0xbe32006cbcb4762fU,
  0x3e93b68abe8e9faeU, 0x3d27b5c7be678135U, 0xbe1dbfe7be8847c5U, 0x3d81a272be572687U,
  0xbd98e4e4bd6eadb0U, 0xbda20cb93e0f428eU, 0xbd95ce3fbd753138U, 0xbe612fa8be1c614dU,
  0xbe4beb9c3db24d06U, 0x3ca463e0bd650669U, 0xbdc933833e978fb8U, 0xbec8587abd916c02U,
  0x3e19e28a3e1b83d8U, 0xbeaca59dbcc1e664U, 0xbcc1b45abdcfd9e2U, 0xbeaa8f6d3e164719U,
  0xbe39d3d9be26c7cbU, 0x3c76eb853da8f8f7U, 0xbe2f57ecbdaf7f1dU, 0xbe6ff006be368fbcU,
  0xbe30b7953e7fcfc8U, 0x3c941dacbe41c441U, 0xbe857ce8bb7c457bU, 0xbe956376bdd0698bU,
  0xbe1ad610be0631a3U, 0xbe3dcafebe16d80dU, 0xbe0b7ac33d42a032U, 0xbe5a8b303d044656U,
  0x3e93c93dbe424841U, 0xbd5a22693dbf7d1aU, 0x3e12e996bcf5eea6U, 0xbe805aa8be5487e0U,
  0x3cfd4abf3d1131a8U, 0xbba42e4dbd041abdU, 0x3d40dc713dfa121fU, 0xbcd059893daf4193U,
  0xbe99c10a3e0e5938U, 0x3bb13e973d4e33b3U, 0xbdb735e63cec1215U, 0xbce4ab373de6be1eU,
  0xbc9129813de70713U, 0xbc09d10fbd1abc7aU, 0xbd7c1c14bd3dffd3U, 0xbd7ec4ae3c3df25cU,
  0xbd04552ebd0b9174U, 0xbe6642763d7bcf75U, 0x3dad9ff6be13a1c5U, 0xbe0f61173cee72b8U,
  0xbd7572be3e250fcdU, 0xbc86caabbc4e2429U, 0xbe101ff6bc9a926cU, 0x3d7bc3953dbeddbbU,
  0x3e506daf3e725008U, 0xbca88757bddaeaedU, 0xbbb02e1c3c1a0ce2U, 0xbc0464883e84f03bU,
  0xbe0da37c3e83779fU, 0x3dcc2bcd3ec3b28dU, 0x3d4a7690bd260bb8U, 0x3e0d7b0f3d39c44eU,
  0x3e28433b3e35b3dbU, 0xbd42ea9c3d0e585dU, 0x3d89a1243e0dfb43U, 0xbd2cdfa43e032289U,
  0x3e0626ca3e1bd524U, 0xbe215ca43e14513aU, 0x3d91392abe72982bU, 0x3d5a8eb1bdccfd78U,
  0xbebe9e9b3d9a68abU, 0x3e9e9db83e057a83U, 0xbe3df39f3db9a6b7U, 0x3dd01fe2be99fbddU,
  0xbbd501dcbe1f1d39U, 0xbe83fcb13e69d471U, 0x3e461bdabd8b59c5U, 0xbe03f1b73dd558d4U,
  0x3da81499bbfa4d07U, 0xbdb58c843d86a35cU, 0xbd91bf23be97875aU, 0x3e2fc43c3d8ade51U,
  0x3dc33383be242624U, 0x3d2d58483b84962eU, 0xbd80bbb33d57880eU, 0xbd0a2c0a3dcb1d1dU,
  0x3cef3e203ca6b4d4U, 0x3d9f623fbe02f24cU, 0xbdbf7e0a3d66c65cU, 0xbe30464a3c95f314U,
  0xbdfad106bd6ec237U, 0xbe511606bc66c882U, 0x3ae1b6debe8cefb7U, 0xbe08a624bd01df26U,
  0xbe5be2ef3df66f8cU, 0x3d8c837fbd2c3e40U, 0x3c2ddec03bee28e2U, 0xbe3bb197be525b7eU,
  0xbde2cc24be118b25U, 0xbe2b54163dc2d04aU, 0x3ca1a5c2bc52ee07U, 0xbd319458bbf69c6bU,
  0xbd89bb503d0bff10U, 0x3e26267b3dfae7d2U, 0x3cdcbe833e07d45dU, 0x3e591d8d3b2145a5U,
  0x3d853a0d3c891b92U, 0x3e0e1ad1bec96923U, 0x3d90b0733e09abbeU, 0x3d6bd6123dfedc12U,
  0x3de004b2bd360a19U, 0x3e347b703e3397f9U, 0xbe3b5fce3d3217a2U, 0xbde878113c738013U,
  0xbd160e95bdb49ce7U, 0x3db0c9aa3e391c78U, 0x3c1856c0be66b3ccU, 0xbe29d7573d72ae45U,
  0xbe073e96bd7544a1U, 0xbd94625a3e028524U, 0x3d2dc1fc3e0f51cbU, 0xbe1436eebe600154U,
  0xbe9978b6bc2868c2U, 0x3d7eac7abe1c78d1U, 0xbe39aebdbd4ed7d0U, 0xbd2320edbda700c1U,
  0xbd23f372bdcdc9e2U, 0xbe514572be297739U, 0x3d9f9f373dfac8c3U, 0xbe81005d3d27eb65U,
  0x3c4a1371bb4d2e0eU, 0xbea173ecbe26b7caU, 0x3bfb6ae6bee03f30U, 0x3dd6a826bdc2f78dU,
  0x3d185f91bd2516d5U, 0xbdbc9bc83d8e6b18U, 0x3d95cf213dc641ccU, 0x3ce16d42beb66c3bU,
  0x3d4e0829bdc9fde7U, 0xbe6cd6b73ba83bd5U, 0xbe4f9e0e3e3a8affU, 0x3e293bca3e04e249U,
  0xbe1588b83bb06517U, 0xbd1e390fbea40ae8U, 0xbe10f5f23d03642aU, 0xbe94f7b33de1ccbfU,
  0x3ddbebbfbd7f285fU, 0xbea2262b3a7267c1U, 0x3dc5e6bcbe2447eaU, 0xbde79bbcbd962a11U,
  0xbdea783e3d4bd536U, 0x3d5504a0bd638bacU, 0xbe687de5bd93f346U, 0x3e577b74bdcab484U,
  0xbeab4456bcebe1a8U, 0x3ae46e473d196f42U, 0xbec10bf1be8ac6d9U, 0x3cdcbaafbeb57c63U,
  0x3e6fc4d33d4bf8a6U, 0xbe169ea9bda16ec9U, 0xbcbfea9b3d6dc0d1U, 0x3cd4c3a03c8f8865U,
  0x3ba4ad3fbebd0b44U, 0x3e2f2fe4be236029U, 0xbe8f574bbdad0185U, 0xbe0600513e6bef1cU,
  0x3e208e72bd40f391U, 0xbd9eace2be642094U, 0x3d8c9986bec1dcceU, 0xbe04315abdafe552U,
  0xbe5d1dde3e075250U, 0x3e36f1783b805f31U, 0xbe82cdb2bdbd6e89U, 0x3e520a18be2f0f20U,
  0xbbd9168b3dbbaafbU, 0xbe700ae93e0cb309U, 0x3d9529853e0b5764U, 0xbe2b3d003d2e120aU,
  0x3d9299a33d2f4ad3U, 0xbeba61ea3e5091a2U, 0xbe1654fa3d181564U, 0xbd377049be51f637U,
  0xbe2a12afbdfc80a4U, 0x3e71fd203d80ae90U, 0xbe929d0e3e47ee36U, 0xbdfe43e93e231989U,
  0x3b9f0e69bde7ea75U, 0x3cb63febbe196f1cU, 0x3e4ddb5f3db07c76U, 0xbe2c87043d63a832U,
  0xbd8d74df3e6f2cfeU, 0x3c548891be57751fU, 0xbe31e4dabe432a26U, 0x3de6ed96be6e0f8aU,
  0x3cdb41563da0b49fU, 0xbe71947b3d3983c3U, 0x3e1f792bbd857afdU, 0xbd40dc94bd642edaU,
  0x3e919d8ebd1e423fU, 0x3dfa5998bd64d97fU, 0xbe392ceebd5ac221U, 0xbd6386fb3dfede9bU,
  0xbe6ec90c3d63a178U, 0xbe32b32fbdcb50d8U, 0x3e1641bdbdceb327U, 0xbc2cc0f4bd5255b4U,
  0x3c4f3aadbd16b1c5U, 0xbe4bd17c3ea68c46U, 0xbdabd3d8be825817U, 0xbdbc25e63e1e0f2dU,
  0xbd90e79ebe5beec0U, 0xbda7c939bc417034U, 0xbde5dad13d2efb6fU, 0xbe41071cbcb8a2a2U,
  0xbdda9bf23e009aa7U, 0xbd8e5cc2be51ae2bU, 0xbe2b4768bd1be944U, 0xbe0751b6bbfc7293U,
  0xbdf158ee3dbb0b91U, 0xbc7ac4023d65f8eeU, 0x3e1908f1be96194aU, 0xbe39f9f23d746651U,
  0xbe309086be061922U, 0xbe1eb5d23e1c871cU, 0x3cb363bcbdfc4e12U, 0x3e796eb9bd40866bU,
  0x3e0ae7e23e659c0eU, 0xbb9518c13d9d2322U, 0xbd0762febddbc4e2U, 0x3d91e863be56a61dU,
  0xbd6822473da9dae6U, 0x3e0d77b23e291680U, 0xbc0a64b33e5eb6b2U, 0xbea0b167bdaf83a7U,
  0xbcb82bdebdb7085dU, 0xbd9568d03e14737fU, 0x3dce226fbd726e1cU, 0xbdd485ff3ddc46f9U,
  0xbde37250bd3716f0U, 0xbd93abc43dab0859U, 0xbe28a27e3d89f030U, 0xbe5fbc87be15af90U,
  0xbe2fde823d33c0c5U, 0x3e32e7dc3c91af85U, 0xbd490920bdb24dbdU, 0xbe916f87bea61fe5U,
  0xbda41af0bd1d6b64U, 0xbeb916bb3b957547U, 0x3cd70b43be169bfbU, 0xbdae9ee5be99b7b9U,
  0xbe113cbe3d4ce62cU, 0x3d56538a3e46dc42U, 0xbda9cf3e3cfe3a17U, 0x3e0b9b063dcba435U,
  0x3d8945d1bd9b16e5U, 0x3e5048303e0aa57cU, 0x3e64fcf8bc70d6bcU, 0x3d941d0abe1ab335U,
  0xbde7c6a8bd7e3599U, 0xbd0a6cf2be21f3e1U, 0x3cffcac53e817781U, 0x3e1915013bacae1eU,
  0xbe2632b63de9815cU, 0xbda754f7be28cff6U, 0xbda26629be2cc645U, 0x3c697425bd91ba88U,
  0xbec58e3bbd89c773U, 0xbe81e7e43d520823U, 0x3e11f792be42fa79U, 0x3ba5b816be5f7467U,
  0xbdd33155be4d4ce1U, 0x3de23d133e30c3fdU, 0xbdb029cabd6a7a00U, 0x3d851e8cbd3e7220U,
  0xbe25544abef1f907U, 0xbea05dea3e55f616U, 0x3e058b3e3d9ba187U, 0x3dc2c6c4bd356ef4U,
  0x3e317b89bde413bfU, 0xbccdfa1dbd2584b5U, 0x3dbd78853e24fcfaU, 0x3ddcc580be80e13bU,
  0xbde19f57be609346U, 0xbec59bb0be7167acU, 0x3d1aee2cbc83431aU, 0xbd8c90c53e4a6ad1U,
  0x3e0bc5e43d8931b2U, 0xbe808fa73e143b66U, 0x3d4d7de9bce7cbeaU, 0x3c3d510b3e0054d2U,
  0x3db714c6bdfcd0c0U, 0xbe156e7abe21ef87U, 0xbe74e99c3bac8b2eU, 0x3e2a57ccbe31a79bU,
  0xbd12afd3bec914ffU, 0x3dcb0d18bc61fdd2U, 0x3e08eb543e39b165U, 0x3d7ae066be938c6eU,
  0x3d7c5ffc3d92670cU, 0x3e5a6119bec067c0U, 0x3d11b2be3e082f20U, 0x3d7e79df3d7d90ccU,
  0x3dfdc7193de00edbU, 0x3d1e07c13dbd43c7U, 0xbde0b92b3cf2722fU, 0xbcac838f3e637705U,
  0x3d8a3639be50cc0fU, 0x3d3c6436bde36a30U, 0xbe10608cbe5731eaU, 0x3e08fc74be25065bU,
  0x3dc76337bd6ddebdU, 0x3d730ced3e6d6163U, 0xbe6eed6a3c5ddfecU, 0x3e0e9b06be44a217U,
  0xbd305de3be900d1fU, 0xbe5a3aa2bded2585U, 0x3df4d8c2bd4afd54U, 0x3d7352173e0f59c0U,
  0x3e42cc09bc24dc64U, 0x3d15e613bead9f55U, 0xbdf68396bb3e23acU, 0x3d53ff03be7e614eU,
  0x3e650afebdee4826U, 0x3e13a2423e19af2cU, 0x3e2641cb3ddfa9b9U, 0x3e8b36f73cebfb94U,
  0xbcb4a298bd991e68U, 0x3e647fe8bc64abd7U, 0x3ccdd8d5be10900fU, 0xbe827a943d2a13feU,
  0xbddb8f713cc10cd8U, 0xbd31e59bbdba39c8U, 0x3e0919fabdb90a48U, 0x3d14507fbde4d149U,
  0xbeb87c6bbd97a9e5U, 0xbdd80ce9bce9d73fU, 0x3e313a72bdfc24b9U, 0xbe029d69be1e3c24U,
  0x3eb55d70bd6e4f99U, 0xbeafd3b0be800563U, 0x3c373d4e3db1f079U, 0x3e1802e43babea76U,
  0x3be4fa0ebdb2cf3cU, 0x3e8f8ac2bd823e50U, 0xbe1644ecbda42767U, 0x3d9875333ddecff0U,
  0x3e67e497be7f4bdcU, 0xbd4797eebd87ebaeU, 0x3e7f15ecbd40825eU, 0xbe46308a3c498559U,
  0xbe60a7693d29ba8eU, 0xbeae8355be62e7a0U, 0xbda9a904bd737c8bU, 0xbddc8e6fbd82f6b6U,
  0x3d92504f3d003462U, 0xbda71c0bbd107bb6U, 0xbde8fce8bc19a900U, 0xbc09722d3dd510beU,
  0xbda26bffbd33df6bU, 0x3d1de75cbc91153fU, 0xbe29b5fabe77e490U, 0xbcb6923dbc8a24c6U,
  0xbe0820553df183deU, 0x3dff54c7be51b359U, 0xbdc011bfbdeff3cbU, 0xbdb864dbbc8eb555U,
  0x3db297633dc1bbf3U, 0xbd55dfae3db29ff7U, 0xbb4462c8bdbc8e68U, 0x3daec9f73af24a49U,
  0x3d90cf20bc3c6046U, 0x3cda33dcbea955bfU, 0xbe6e9975bc0550c3U, 0x3c5eda58be201729U,
  0xbd9969fabdfa3f59U, 0x3cec34aabe7eea2aU, 0xbe8a458fbe3b8112U, 0xbddd9b2dbd2e349cU,
  0xbe43228dbe9dcf17U, 0x3e0160e7bd4d5698U, 0xbd92643bbcde81c4U, 0x3c25134e3e36e6feU,
  0xbd5daca13e65544fU, 0xbe205576be7c7e72U, 0xbd0d0d3e3dd1df31U, 0xbe4bba48be692930U,
  0xbdc05583bdb10766U, 0xbd7d539e3da495beU, 0xbd5c841bbd537886U, 0xbd32e9973e64099cU,
  0xbe83430ebe3d736fU, 0xbdb64c6d3d07857aU, 0xbe1b382abd0b18f8U, 0x3d1e9b87be303831U,
  0x3be45a6b3c8829d2U, 0xbe09e436bdf9baa3U, 0xbd5bdf07be47de20U, 0xbda395acbc4c7c28U,
  0xbd47b834bd3c55b2U, 0xbd9be76ebe19861aU, 0xbe620f58be274818U, 0xbe323b67bdbf29bfU,
  0xbd4ebc0b3c7add3dU, 0x3c3a5a843cfeb969U, 0x3d7f6369bda7c9f8U, 0x3e6f74cebb6c27d5U,
  0x3e35bf703e0a0624U, 0xbda7223f3db81a5eU, 0xbdb101babdb81380U, 0x3d59576cbe455a59U,
  0x3dd33f0abc97c511U, 0x3da8b8e43e3822a5U, 0xbe876c403e6db656U, 0xbd045da2be91ad50U,
  0x3c4f2ac1be3ae802U, 0xbda6fd68be0a93c7U, 0xbc1e71c73cf4340bU, 0xbd410a633dc3dbc1U,
  0x3df16802bdbb4cc5U, 0x3d2db060bdf44df2U, 0xbbc6b8c63a76d35fU, 0x3b0241bcbc8529a2U,
  0x3df4e7b93d1760dfU, 0x3cbb572cbd2b1075U, 0x3d2432933e1fe2afU, 0x3d411890bd0eb01aU,
  0xbdb0c0693d22478fU, 0xbd039ad23dbb27f8U, 0x3e54f1ed3d895151U, 0xbd434056bc0a0bf8U,
  0x3e020d003e093960U, 0x3dbdd036bdc73017U, 0x3d5ba418be813817U, 0xbdd5bbaf3d9c324dU,
  0xbc3e04d3bdcc1ae4U, 0x3e170d413d88ecb5U, 0xbe049e293df5a80aU, 0x3e051047be1b06cdU,
  0x3ccdb7873e197ec7U, 0xbe142c5cba654b7aU, 0x3e521f363d8055bbU, 0xbcf2f3f23e2d7112U,
  0x3e5f10393c398cbeU, 0xbce8c2553e585d34U, 0xbd6c57c93d5f6103U, 0x3d73f5b33b96f012U,
  0x3b8993563d854d76U, 0x3de47ff23be0b55eU, 0xbe197e303def3841U, 0xbe8b34893df42c09U,
  0x3d57fee83d6dd142U, 0xbe108c17bda90ac6U, 0x3e215a45be1e66d7U, 0xbe6d90b8be16304cU,
  0xbdded5253e4edfe8U, 0x3d239264bd4e09e0U, 0xbd3f3b20be447b6dU, 0xbe44c06e3bcd607eU,
  0xbd7aa929bd4cb5bdU, 0xbd8cec013db4c8aeU, 0xbac85994bd5e4e89U, 0xbe45e0d8be26ae18U,
  0xbcb05e36be13a584U, 0x3d45398ebd6de193U, 0xbdf9538f3e18c3c8U, 0xbe046be5be9d0926U,
  0xbafc12fbbde00318U, 0x3e4ac463be831ab9U, 0xbec09deabd98a8d0U, 0x3e5089f03e35424eU,
  0xbe0a33b53d4a1899U, 0x3cff59f0be508bc2U, 0xbcc3daedb971e270U, 0x3dddbf90bdf8ba6aU,
  0x3e451a833e09bf15U, 0x3cef3205bdb0deddU, 0xbe74b9e0be599681U, 0x3e03c40a3dcd23f2U,
  0xbe9a1becbe243189U, 0x3e93ad043df900e3U, 0xbe8e840dbe9336dcU, 0x3cd76ea3bd208ef0U,
  0x3cd355413e14bd69U, 0xbda69a3c3d169968U, 0x3dfa4eec3cc65ad8U, 0xbed97ce4bde47b7fU,
  0xbdf38038be3f9bc9U, 0xbd2299a03e1d5194U, 0xbdc8222ebc4d55b2U, 0x3e0dae4e3e234a32U,
  0xbed90227bde8fd1fU, 0xbe7544cabdde36e2U, 0xbd4204c8bc868239U, 0xbd422c8dbdbecb7eU,
  0x3ed935efbd8c0438U, 0xbc59d0e2be26a7c7U, 0x3d6e16bfbdc80064U, 0xbc5ffe7d3e2e61c7U,
  0x3e2bdc533b9673d1U, 0x3e9bb535bdad6477U, 0xbbac14d0be11c304U, 0x3c075e9ebc841dd6U,
  0x3e8533fa3e80dbf7U, 0xbc9dd8d3be024226U, 0x3e3672ee3d33da15U, 0x3d30d6493d85d5afU,
  0x3b6d74393d2143ebU, 0x3e28c3a13e17d6aeU, 0x3c9676a7be1b3d7aU, 0x3dbfbb77bdb78fe9U,
  0xbe035db93dd9b14cU, 0x3dee06e3be018b16U, 0x3c29ece73e07a197U, 0x3da03066bbb3e9b4U,
  0x3dd3d2f3be2b479bU, 0xbe855437bc64f21fU, 0xbe241c3c3d3b2416U, 0xbd3a0190bd87551fU,
  0x3e2340593d0a33bcU, 0xbd80531abe2fa118U, 0xbdbef656be837ec3U, 0xbc79b588bd5b9ffbU,
  0xbd64fefabdc3fe45U, 0xbce3a6b23dd93716U, 0x3dfe4deb3cafee63U, 0x3d115c37be0526a3U,
  0x3e7b5a373d679810U, 0x3c5228373e17c524U, 0x3d957d6e3d0343d9U, 0xbe28ab5bbdfedfafU,
  0x3e3a19983e94683dU, 0xbabc47fc3e1a4ef1U, 0xbd723da8be6e721dU, 0x3df6ebaa3d90ec62U,
  0xbe5bd0f3be5e0191U, 0xba629c523d486b7aU, 0x3e630beb3da7985dU, 0xbe29b704bd3d0de4U,
  0xbd35945dbd05f191U, 0xbe087c18be8ad2bbU, 0xbd1991e2bda8044bU, 0xbc965dbd3e2f0f45U,
  0xbe3bb1bfbc9f2cd4U, 0xbd359c3fbcfb5c2aU, 0xbdcbf576be7eaff7U, 0x3d8f6ddfbe7d7301U,
  0xbd9ae5cdba1e15b5U, 0xbda9d5513d167cb2U, 0xbe22f28e3d8d1b3cU, 0x3e949d7a3dfa261fU,
  0x3daf9ec5be585277U, 0x3e2d64fa3e509ffeU, 0xbd7d1d373e44b69dU, 0x3dede3c8bd441c07U,
  0xbe79cc85bd8d668bU, 0x3d5387a33e4db5bcU, 0x3d9a74d3be881131U, 0xbe649a0abd5597c4U,
  0xbbc3c2f9bc91df12U, 0xbe31c695be34f9cfU, 0xbb657dcf3d0d5548U, 0x3e4ff123bda235e0U,
  0x3c354a04be53843dU, 0xbe4d4fa73e0dc416U, 0xbcb8b4d8bd93604cU, 0x3d3b4fbebcdeadb3U,
  0x3d806dcd3d0f3291U, 0x3d48abedbb774750U, 0xbdff51883e2aae2cU, 0xbd459670be04b28dU,
  0x3e149c86bd8b0fa3U, 0xbe39b3ea3b9f7873U, 0x3e048bcdbd91de25U, 0xbe51f9853e7c5737U,
  0x3d6f7cec3d8db500U, 0x3e2acf06be30795dU, 0xbe522fd63cd752feU, 0x3c5e1c36be01f7dbU,
  0xbaa3bd413db3a43bU, 0xbd3c5889be087920U, 0xbe305b983e1a4528U, 0xbdbfefd8bce0a14cU,
  0x3e098aa5bcc44dbdU, 0x3e42042f3e6d1164U, 0x38de496dbd355c99U, 0xbe335bb3bc5b14dfU,
  0x3de248933d90308eU, 0x3d706a453db83f70U, 0x3e1470fc3dd72fc0U, 0x3b8c19e4be64f22bU,
  0xbd9ca6953cfb7398U, 0x3e26f0a1be331abdU, 0x3c8cba613db6964eU, 0xbdca2e683e0da95cU,
  0xbd1e9eb7be8280e9U, 0xbebd6317be0933caU, 0x3ddd56d23ce3cf97U, 0x3db6a2cc3d142141U,
  0xbdcaadda3e21da06U, 0x3e8798f0be0cfd0aU, 0xbe18e405be240c68U, 0x3c881f7b3e1ceb6cU,
  0x3dae8bb23cb89c28U, 0xbe2b23043e30c72aU, 0x3d2407553d8e65bfU, 0xbd040b453d05210fU,
  0xbc9705743d663ab1U, 0xbbd23819bda742d2U, 0xbd9d7a433e8575beU, 0x3bd14dc7bc89b879U,
  0x3e3a7398be3d5886U, 0xbe85ac593d9e68b2U, 0x3932584d3d80f901U, 0x3da412bc3e80c3bbU,
  0xbcd1cababe250636U, 0x3e3bbab5be786a3aU, 0xbe1d6bf43e260ae5U, 0x3bcda3aa3bb3ff67U,
  0xbcb2c0e33e73e4a6U, 0xbd8273f3bea89874U, 0xbd8804b43dbea355U, 0x3e16dc7e3e9e608eU,
  0x3dbb81dfbc864f43U, 0xbdc0fa183e16d7b0U, 0xbd984bc93d8cd2a0U, 0xbe6ad0aebc2f1cd7U,
  0xbd903aeebdeaf901U, 0x3e11b531bd27f17aU, 0xbe5fa418bc87c5f3U, 0xbd0f74273d52c994U,
  0xbd0355a53e27e376U, 0xbd0e8c77bdb0cb32U, 0xbe044e38be45b893U, 0xbe0a17923d8e7e30U,
  0xbeba1a15ba8f4794U, 0xbd9b44e33c06c2bbU, 0xbe4f0eb6bbc35e05U, 0xbd26718fbe4cd7bcU,
  0x3e0c61153d926234U, 0xbe9482d9be58ec35U, 0x3eb1055cbdeb7204U, 0xbe0962ce3e1692e6U,
  0x3c90df55bd9ff6dfU, 0x3b9aac243cb95860U, 0xbc951d6fbcd66fa7U, 0x3e9b76e9bd1e007bU,
  0x3ddc45b33e48c8c9U, 0xbd235e3fbdc23f6dU, 0xbe65230a3dbee0a2U, 0xba91e94fbcaf4e21U,
  0x3c88eac03e29c45dU, 0xbd9021c4bd467e84U, 0x3d5969f6bc80ae02U, 0xbddbdd8a3cb38344U,
  0xbe7aeeae3b924ee7U, 0x3d4d43c73d8d93d4U, 0xbe27f5e6bd9f243eU, 0xbdf1a60abeaf6283U,
  0xbe249934be5d5e02U, 0xbdc6bd1cbe83631aU, 0xbe6e2a8d3d5f74baU, 0x3d891b7ebde62656U,
  0xbe13a064bce778e7U, 0x3d1a322a3d9785c8U, 0xbd3638d73d83ed97U, 0x3cec34613c73b9e1U,
  0xbe899f42bb966a99U, 0xbe42145a3ea9dc5dU, 0x3d647dfb3de5d7a6U, 0xbdb8acad3e83d161U,
  0x3e06d2b5bc58c603U, 0x3c430b22bbf21ed4U, 0x3d40d36ebc877d0fU, 0xbe7095963df09a66U,
  0xbc5d0c1abd81c28cU, 0x3e05071f3e00c875U, 0x3d990a3b3e33feb7U, 0xbe4aab70bdbbe92dU,
  0x3d85c5033dad4ae3U, 0xbdd5ae613cc3f353U, 0xbb9f99e03cedf724U, 0x3d1cf5f33deaa8aeU,
  0xbdb1d55ebe205648U, 0xbbbe7f88be628948U, 0x3e04fc87bd62f0e2U, 0xbde84bb03e4d53f1U,
  0x3e4a3dce3cbc2383U, 0x3d1b2d84bcfa6dd0U, 0x3d4e8920be800eecU, 0x3e0fff823c20db58U,
  0xbe8ef2d13d3a8e7dU, 0xbe4a7bf23e2d0a69U, 0x3dddab083df87216U, 0x3e2623713db0913eU,
  0xbe34eb283bdcf57aU, 0xbe9d6357bd17e989U, 0xbdb532eebd880fc9U, 0x3e3d4751be055f10U,
  0xbe10ec303def5c0bU, 0xbe2463e4bdc67f29U, 0x3dc56cd23c85bea6U, 0xbdb9b63f3d6590aaU,
  0x3e08b724bdd8397cU, 0xbe58e63dbe18fedcU, 0xbc506bcf3d37904bU, 0xbcfa191e3dd339bcU,
  0x3e500c4abdbe46a9U, 0xbe5c456f3dedaf4eU, 0x3d8051fbbdfd89baU, 0xbdb4db183cca3f33U,
  0xbd265097bdef5357U, 0x3cf314ca3dcbf5adU, 0xbea678ccbe075898U, 0x3e459902bdbe0eb4U,
  0xbcae9e8abd706f3bU, 0xbd3d732abe7db75eU, 0x3e68dd21bdb0a900U, 0xbe2c8243be3e54a7U,
  0xbcf16899be27e0f1U, 0x3e1a73393da55cb3U, 0xbeacaf7f3e21b6d8U, 0x3e0b9fafbe1de280U,
  0xbe1a05123d4c7af4U, 0x3e8323a8be3ae7cdU, 0x3e34d18dbe835542U, 0xbe5bb3d13d93a10aU,
  0xbe19f5d93ce0627fU, 0xbbdc63b63e0eb867U, 0xbe09cfb7bd00297bU, 0x3e74bdcb3d2fcc66U,
  0xbd9aacaf3e149cebU, 0x3e79cff23e1d05d3U, 0x3d2ae9bd3ec38023U, 0x3e04ed9dbe9755fcU,
  0xbd4a8a713d20ea5cU, 0xbcf8452dba7c0983U, 0xbe271142be3f055dU, 0xbc349e3f3e2ef65fU,
  0x3deb902abd885720U, 0xbd54d0f33e0780fdU, 0xbe853cf2be49a9d0U, 0x3b12ea42be1678caU,
  0x3d273c51bde04ad1U, 0x3e2bea71bdb2e3d3U, 0xbce2e73b3bd51d1dU, 0xbe55db7abdac8f41U,
  0xbcd52ebebda8e26aU, 0xbe16cc5abd9b1d59U, 0x3e678228bdbdc0acU, 0x3d1a19a9be3b5214U,
  0xbeab55dd3d2a25a5U, 0xbd19296bbe31c6e8U, 0x3e9ecc703b5c6523U, 0xbe5adf52bcdafd82U,
  0x3d38faef3d3e1e6cU, 0x3df6bb123e59174cU, 0x3dcbc2ce3d807811U, 0x3e3225133e191ccbU,
  0xbd84e1aa3c7e7204U, 0xbb6484e13e3f4fecU, 0x3cb0cb093c4279d7U, 0xbe05855fbdd8002dU,
  0x3e498ffc3dc197c7U, 0x3d502c5f3da1473cU, 0xbe2d74973d4ca576U, 0xbcf4014fbe86bbecU,
  0xbd8da951bdfa607aU, 0xbde17c52bda905e0U, 0x3e7ab00bbd9768e2U, 0xbdc17257bef6e771U,
  0xbe51d5e03db5564fU, 0xbdc652f3bd72de9fU, 0x3d89e943beb161cdU, 0x3e50864b3de6e5b2U,
  0xbe50acedbe0f19beU, 0xbd7526f53d98b13dU, 0x3d5f0a313dc36f2aU, 0x3e76bef4be1ab295U,
  0xbeb27b963e39411eU, 0x3da4f1583e6029deU, 0x3d9451663e4fa962U, 0xbccfec6f3e67452dU,
  0x3c7f1c7bbcdfd679U, 0x3da350e63dfcbebbU, 0xbd8a85aa3e160008U, 0xbdd55cf53dc21541U,
  0xbd360a93bd23240eU, 0xbe1574b3bc8898d9U, 0x3df1d2bebe2274a3U, 0xbdf48f9abea5248bU,
  0xbe0317413d8cd80aU, 0x3ad50915be4b40bcU, 0xbdd83ea4be859a61U, 0x3e83f4d8be1a4d2eU,
  0xbeb63a4cbf212de4U, 0xbe18f8113e5021aeU, 0x3d8e26d43d379264U, 0xbd254bc5becd298aU,
  0x3db4f0683ddee9a8U, 0x3d512cfdbe656ba3U, 0xbe29c44e3df3fbaeU, 0x3e146df0bd6afc25U,
  0xbde1abe9bdd57f4bU, 0xbdbda3ddbeac611bU, 0xbaf8f4113e2ffcebU, 0xbecc9f153d6dc149U,
  0xbe80afb5be89004eU, 0xbd93ce7cbe16bb24U, 0x3dedbf96be8788d2U, 0xbe891e1abe3725d6U,
  0xbed769403d8e5ef1U, 0xbe1ef341be70e8daU, 0xbd3edbb8be88510aU, 0x3e39d725bd9cf932U,
  0xbece5a6cbed6e106U, 0xbe13cc693e262990U, 0x3e38cd89bcb455e1U, 0xbe3c11d1be8f500fU,
  0x3e56a200bcbaeb50U, 0xbe98b201beb75c39U, 0xbcf14d5d3b1afbe8U, 0x3e369ec13ce5a2ebU,
  0xbe041362be06c110U, 0xbd831d70be2b7ac9U, 0x3d31aea83d098094U, 0xbcbc8c06bd83542bU,
  0x3deba265bcb18bb9U, 0xbd2ce4793da02524U, 0x3c14fc1e3d662bcbU, 0xbd235df8be7e7d82U,
  0xbe132567bd4fec0eU, 0x3cf5a689be16ca0fU, 0x3c46fd62be0cbb5fU, 0xbc79e340bd557342U,
  0x3d127b8bbece9908U, 0xbde3d447be52dacdU, 0xbe7e6646be24984aU, 0x3e238d65be8bc3f7U,
  0x3c8fba933e2ea848U, 0xbaa70bd1be9db005U, 0xbd6dca03bd3bd0ebU, 0xbe1c3f17bda5f950U,
  0x3e962c5abedc26c0U, 0xbf031c1f3ea1f686U, 0x3d9359e4bdbd8312U, 0x3e1e5eb53dbd50a5U,
  0xbe45deca3e299f59U, 0x3de47237be69a7e9U, 0xbd933adfbce54d08U, 0x3e5317e33ddbbccaU,
  0x3e1438a43d01fa1dU, 0x3e3b0d363e3e2496U, 0xbd69946a3dd1e261U, 0xbceee2d8bd7d70cbU,
  0xbd5269aebedc6c0dU, 0x3e0a0ab33c177b23U, 0x3d92a58b3b87bb2eU, 0xbe53629bbe5095ddU,
  0x3d7535413c8ab36fU, 0xbe4d7356bee6b897U, 0xbdcbe4ad3d15584cU, 0xbdb8e8cbbd9986e8U,
  0xbccbc6d0bb9a5d1aU, 0xbe407af43e363df2U, 0xbd818b36be5657fdU, 0x3dad7b7d3de932a1U,
  0x3e7afb9c3e2852beU, 0x3dba8fc13d93f871U, 0xbe5e0a873d573e98U, 0x3c4c3ee4be30e13dU,
  0x3e2461293d527e50U, 0x3d0cae113e353a74U, 0x3e1750bb3dd1f6f1U, 0xbcf845dd3de27a4eU,
  0x3d4033a3bdd104f0U, 0x3d856f82bc2cf36dU, 0x3d19a0f9be05ab1aU, 0x3e5b6ba6bd9201f3U,
  0x3d7bc69dbe290a14U, 0xbdae6304bf2265ceU, 0x3dc4c7b6bd03999bU, 0x3cee6b05be1a6a56U,
  0xbe3337aabd8a1335U, 0x3d7a4e51bde03e8fU, 0x3c8626ebbef96e40U, 0xbdc25d82bd2ae96aU,
  0x3e8b614e3d361cedU, 0xbd9e0e65bbb3ea6eU, 0xbe66e0a4bbb06c9dU, 0x3db10c39be845a9cU,
  0x3c238f13bd515df8U, 0x3e8cccc03e9553d5U, 0x3e3a52aa3e487626U, 0x3da2585f3e2c6237U,
  0x3dab9f69bea7f071U, 0xbd7ae4d5bdbb3e90U, 0x3d5ab9f13c8be848U, 0x3e5b31e73e2bb422U,
  0xbd69e3ad3e42f697U, 0xbc826bc5be83a70aU, 0x3de465bd3a1dce2cU, 0x3d4ce93abdf2be0fU,
  0x3e459223bcd78c5bU, 0x3c42c02c3e08e2d5U, 0xbe0d70eebedf9208U, 0x3d92bcb9bdfa9d2aU,
  0xbdcc26ce3e22671bU, 0x3d85e047be478421U, 0xbd6263c03dadcd3cU, 0xbde825a8bea9312eU,
  0xbd203bfabd36e2dcU, 0x3e957a033e385a49U, 0xbe5d2560be0210c5U, 0xbe82a0db3c2ef79bU,
  0xbd5f4477bdfc931aU, 0xbd24e481bd0169c9U, 0x3e9439f3bd3c6c9eU, 0x3c3f353c3d89d42fU,
  0xbd66d98f3de51184U, 0xbccc57993c68437fU, 0x3e0aa3eabc18ba7aU, 0x3dd61b19bd00d603U,
  0x3e22503c3ddafbb6U, 0xbdc4a4b13e5e3acaU, 0xbda6f85c3dd34ba5U, 0x3db46992bca217e7U,
  0x3d4ea16bbdd537ecU, 0x3d809da53cdda4c3U, 0x3ce06ccd3c9ee4edU, 0xbe513396be5af402U,
  0x3daa9fa2beb1a607U, 0xbce3570d3e3367f4U, 0x3e124211bc36aad9U, 0xbe34c016bd599c99U,
  0x3d9ea483bc8dafe1U, 0x3d8ceacdbdfa1ef2U, 0x3e53980d3dc79db6U, 0x3add0e1f3ea9b556U,
  0xbe5f5b943d803040U, 0xbd57e61d3d5c3247U, 0x3dd5f37e3d99a732U, 0x3d06ae293dc4b461U,
  0xba64ac873de5af4fU, 0x3d8998ee3db9c151U, 0xbd243126bddacfc3U, 0x3ad93d0fbdde6607U,
  0x3d9367283e50a9e8U, 0xbcfa60933c06a28eU, 0xbe94de9dbd03383aU, 0xbe950f473c73b447U,
  0xbd2f710cbbef8904U, 0x3d91afd0be4e47e0U, 0xbb9c1e68bd4d9a7dU, 0xbd4ccb723d4e3015U,
  0xbd82d5553e755da3U, 0xbd1d9415bead5a12U, 0xbea5520abe43c00fU, 0x3c620c9e3dcd6a58U,
  0x3dce8cd43e4605efU, 0xbe3af83cbdf58347U, 0xbc8d8eabbdb26d56U, 0x3d5613a43d3e9b0bU,
  0x3d6d21e2be4a9370U, 0x3e12c35a3d8ab4feU, 0x3c5d15ffbe8ae1aeU, 0xbdb5e5223e36e0c1U,
  0x3e009e573e6bd724U, 0x3c92ccdebcda3087U, 0x3de0cadcbe0fb6ddU, 0xbe3501743b9bab8eU,
  0xbca2066b3e61f05bU, 0x3e91126f3aa0e781U, 0x3cc9e905be158423U, 0xbeaa5825be868f9aU,
  0xbe323425bdc5c882U, 0xbe5430f73e331552U, 0x3b9d3467bda1e168U, 0xbeaa5ef0bca252baU,
  0x3cd25f9fbd34c4f8U, 0x3e546d4cbd957520U, 0xbcaab20bbe144a07U, 0xbebf15b3bdeec47cU,
  0x3e407a0a3e48210cU, 0x3e15d0e53cc6a2fbU, 0xbd88356ebe54db5cU, 0xbd82a9223e0f7905U,
  0x3d051a6abe5d8f47U, 0x3e8acd39be92049cU, 0x3dfef7ed3e0df27fU, 0xbe8c512fbcb45c4bU,
  0x3d669bff3df0bc77U, 0xbe1e4dbabde401efU, 0x3db0640dbe36dd82U, 0xbee1628cbe70c71dU,
  0xbed023d6bd3d7f00U, 0xbd6b5d843d2e7638U, 0x3d66420bbe07b3c4U, 0xbe213ac3be193d3bU,
  0xbe88289cbedbea4cU, 0xbd98415e3bf2800cU, 0xbdc19344bc00be02U, 0xbebb7580be93aa0fU,
  0xbdd9e5b6be191e06U, 0x3ca421913e970d37U, 0xbe4d067e3e32a242U, 0x3d896e153d50e23cU,
  0x3b87fba13c8be475U, 0x3ea8670fbdf5f6d9U, 0xbda6b4b53e8a0597U, 0xbf0ea406be4de96cU,
  0xbaace7a83e2cedfdU, 0x3da00719bd9448f7U, 0x3e32025ebe8adc34U, 0xbd81cd123db0971eU,
  0xbe710d52bd854e3fU, 0x3cc5c771bd4b5fcaU, 0xbb6e3518bd515495U, 0xbe44824fbdcf6199U,
  0xbee877adbdce4d1bU, 0x3de875cd3e7f85d6U, 0xbc718504bd66ef2dU, 0xbd48a0153d9bac26U,
  0xbe95811b3c10f81aU, 0xbda146e23c89b076U, 0x3e261f473e678986U, 0xbd4b529ebd4076beU,
  0xbe3c96873d1469feU, 0x3ca75c813db3c10dU, 0xbc987d0f3c89fa5aU, 0xbea44ca3bc4c4834U,
  0x3d462c50bdc12db8U, 0x3e4c714d3daebadfU, 0x3e3fa6a1be71733bU, 0xbc63002eb96d7083U,
  0xbdcf289cbed12d08U, 0x3dfb5ffa3c389a69U, 0x3e24d05a3de42bf4U, 0xbc4894b93c2391ddU,
  0xbdad004dbe67c1a8U, 0x3e00ea583da0df88U, 0xbc4304b1bda68b27U, 0x3e4a01a43d16db77U,
  0xbc0a6a5f3d9de951U, 0xbdbe024a3c1cae22U, 0x3e760e083db3c331U, 0xbe04fa79bc221f31U,
  0xbd7e34b63cda4f3aU, 0xbd43f49d3db984a9U, 0x3d72d2233c27c3acU, 0x3e1420d7bb25da10U,
  0xbe7fc06d3d13fbb9U, 0xbe173af3bd011e46U, 0x3e27c5233c9a4b72U, 0xbd8e17e03d173b11U,
  0xbd7d1bca3cc6b56bU, 0xbd1cd85dbe29b2ddU, 0xbc90141bbccd7345U, 0xbccd818dbe469ee4U,
  0xbdb765133cb8e344U, 0x3da39f94bdf2de4cU, 0x3da6669f3ca75255U, 0x3e055d143e3b33aaU,
  0x3dc3c7033bf38e30U, 0xbb93dd8a3e6350abU, 0x3e48e2ab3e4e8800U, 0x3b94eeecbc980b8bU,
  0x3e99d4b63de679f9U, 0xbdab887fbccd7b86U, 0x3dd90ed83e05f6c2U, 0x3dc34b2bbd0ab772U,
  0xbd3fad0e3d18a352U, 0x3e11f46b3e290592U, 0xbe00812c3d7c00d4U, 0xbd82d09b3cdddf8bU,
  0x3d12c382bcde9e48U, 0xbe01faaebd161b2eU, 0x3c8a1ecb3d4ceb97U, 0x3d7cb5553ccb02b3U,
  0xbdd7c59bbe25327eU, 0x3d84fb51bde30018U, 0xbdcbb702bea2b08eU, 0xbe2a26d0bdaf3d06U,
  0x3d8f89793de1755dU, 0xbe211fe7be8d3987U, 0x3d23fa15be5552ddU, 0xbe6d2bf43dfa4321U,
  0x3ca8e0c93d544c05U, 0xbe0cd1743d4fa577U, 0xbe2c82febdf62cbcU, 0xbdb8939cbe4a7f4cU,
  0xbece23993d140c81U, 0x3dd54ada3d7423ffU, 0x3a2c47a13d949a83U, 0x3c22926c3cd46f3fU,
  0x3c983f80bdef52c3U, 0xbe908b58bdabec7aU, 0x3df86169bdc885e9U, 0x3e016270bcc18cc7U,
  0x3e36ce023e1fa9eeU, 0xbdae850cbd217f95U, 0x3d978986bdd7eef3U, 0xbe83dd90be835f14U,
  0x3d2ef4e5be4de356U, 0xbe015ca83db8d798U, 0xbd1ad8773da6e52bU, 0xbe99ab61bcf87dceU,
  0xbef18d1abda8ddaaU, 0x3e0c2c8ebddc333bU, 0xbd834df8bdc7e7eeU, 0x3d89de97be8040d4U,
  0x3c97c00cbd21409aU, 0xbe0461e43d810a6dU, 0x3e170584be618cc8U, 0xbd9da844bc99be22U,
  0x3e0fcfc4beb405a4U, 0x3ce4312bbcbe083eU, 0x3dabbf513e34c843U, 0x3df97adc3dfe4f9dU,
  0xbcd2848abc0ff875U, 0x3e1821c3be3dc688U, 0xbdc2a811bd6a52bfU, 0x3e8344823eb65783U,
  0xbddb6d7c3e7e3dd2U, 0x3d0b4a7d3e014343U, 0x3e131a9e3c30d713U, 0xbd40323a3d04f349U,
  0xbd08bcce3b0a28a9U, 0xbd83b9da3e4419a1U, 0x3d8a76363d0bac9eU, 0x3c1b863cbe4a85c5U,
  0xbdd299583eb3bf82U, 0xbe217277be318a72U, 0x3e5bf043be980628U, 0x3dc424a43d628f4fU,
  0xbe5bd9a8be9c5bd8U, 0x3d02ad923ddabae9U, 0x3d866324bd66b93dU, 0x3e4f7e48be8dccb4U,
  0x3c165c5b3e35c568U, 0x3e0c7891bee14cb5U, 0x3de81408be7795b8U, 0xbccddea13dfb379aU,
  0xbd4d4b693d4b788eU, 0x3ca29c22bead6eecU, 0x3cde2e2abecfa9acU, 0xbe42cbbabc1edb5eU,
  0x3e8d76af3e4ac3c8U, 0xbea9ff2a3e08b51bU, 0xbd98c3e7be7fa0adU, 0xbd39902ebec182d8U,
  0xbe9b2fa53de99886U, 0x3d2515ca3d88f032U, 0xbd3f69cd3e2eb262U, 0x3dbc1b343d2efed0U,
  0xbe9c2ae7bea2369dU, 0x3e7e228a3e5489a9U, 0x3e0117673d864c52U, 0x3c695cd5be6a6297U,
  0xbd8941a73c40c24aU, 0x3d85aa81be65e659U, 0x3e3af5623d207dacU, 0x3eaaa7db3e33e8f3U,
  0xbdfeadd23e216537U, 0x3d5dba9e3cdf925eU, 0xbddccf15be3996e8U, 0xbdce5ccbbe6dfce4U,
  0xbd8a7e6abe8bc60cU, 0x3d5bad7a3df42003U, 0x3d8f3f50bd7bea49U, 0xbdc9b12dbe88d56dU,
  0xbdb351433d8dab8dU, 0x3e5283d13de27d0fU, 0x3a0a0594be09c5bdU, 0xbd5da6fdbe520b6aU,
  0xbbde8ebcbe13b7ddU, 0xbdfd9c163d5e7cfdU, 0x3db852fe3d9db762U, 0xbd3bd84f3d93d6d4U,
  0xbdf199323d954804U, 0xbc5e2cff3de409a2U, 0x3e25afdbbe0c4570U, 0x3ddd87d43ea1cff5U,
  0xbe8fbebc3e0008f8U, 0xbd580abf3d807e6fU, 0x3e2c2a2c3e016f7cU, 0x3d96c1b6bed22e2aU,
  0x3e11faeb3e78a2f6U, 0x3d7f25413e6320caU, 0x3df798da3d5db9c1U, 0x3d819720bc612142U,
  0xbdab29febdc81c7aU, 0xbd4d15383e3a773aU, 0x3e56634d3d276e58U, 0x3decedb03cf5b636U,
  0xbe30e910be38a20dU, 0x3c9dd5b1bd0cb060U, 0xbd1bea0f3c86f260U, 0x3e615d71be158648U,
  0xbde8094a3d9c400fU, 0x3dc98cc73d242e0eU, 0x3ced6495bd284062U, 0xbd97c137be06ff58U,
  0xbd38f480be7489e0U, 0x3d68a98a3eafd41eU, 0xbca2415cbd09f9f6U, 0xbe6a0a353eb1c4deU,
  0xbde2a3b7bde1c0dfU, 0x3d854f21beadedd0U, 0x3db6e6073e5fb145U, 0x3ba3d871bc571fa1U,
  0xbe7431d13c529d49U, 0xbe2a0193bd63d3f3U, 0x3e75db1ebe6a3a3fU, 0x3e45bfda3d839d21U,
  0xbdbc16623c1ac1c0U, 0xbe358f683e3a5632U, 0xb9fae3263d833852U, 0x3ec5901dbe984108U,
  0x3dee36af3e084bc2U, 0xbe06a3df3e04bd21U, 0xbd74ed5c3b18d334U, 0xbc83e7393d09ec46U,
  0x3e4e296dbd9aa3adU, 0xbd9f6bbf3ce0b325U, 0x3c7330f73d74d6b4U, 0xbca7a52fbd314219U,
  0xbcc19f853e24bd58U, 0xbd845360bd0a3f87U, 0x3e3f7d383d281412U, 0xbe025443be01f4c7U,
  0x3d30e9503e494497U, 0xbc9b4d89bb85ac13U, 0x3e193d33bea0dcc4U, 0x3df49d6a3cb56ab6U,
  0xbe5c1b69bf02d2a1U, 0x3e0dca74bcca20d9U, 0x3cba6f1ebc85dc4bU, 0x3e3eb974be04cda1U,
  0xbcf8f31a3d2c118cU, 0xbda17c3cbf30d072U, 0x3cc1d34fbdcac88bU, 0x3deeb2093e0a8ee3U,
  0x3d8ac2ef3d3b7327U, 0xbeb6e3e93e82d853U, 0x3e0dbc5dbe885ce7U, 0xbe5152b7be054786U,
  0xbd793cf63e8249bcU, 0x3dc7b80e3e48971aU, 0xbea4bccc3d76b7acU, 0x3d8dc278be2b637aU,
  0xbe8e26ffbdb6443bU, 0x3e54e1e43dce941eU, 0x3e6062083dd0c002U, 0x3dad6d2f3e12e860U,
  0xbe875bfa3c94aa95U, 0xbcf38c02bd45b11cU, 0xbd51cdecbe79820aU, 0xbdfe4e2ebdb85959U,
  0x3d27d54b3c300f27U, 0xbee02dacbe184c6cU, 0x3dcce074beae7968U, 0xbe8282a4bd9f85b2U,
  0xbe32f0413da5f845U, 0xbe072ca23dfc31a2U, 0x3dd8441dbe22c69fU, 0x3e0501d0be3598c8U,
  0x3d3226733e040d2cU, 0x3e07b2623e55e0c7U, 0xbecffd073eac209dU, 0x3e006c2d3daeb04aU,
  0x3e25cbe1bdd44fa3U, 0xbd5fe1f63e852fdbU, 0x3e29ee563e7c2b0fU, 0xbea6ba9b3e97e0a1U,
  0x3d35cc243e5e20b2U, 0xbd48f5d83d5eeffdU, 0x3ea128d63e740584U, 0x3e17afbf3e1e933fU,
  0xbdb161903db0d790U, 0xbe8391db3d40215cU, 0x3a5919a83b3c9c00U, 0xbd5cc3a33be98e6fU,
  0xbd87c5bdbde9c13cU, 0xbc57ba733dba31d5U, 0xbea1b4ccbd9bbcb5U, 0x3cd489b2be11a183U,
  0xbe96aaf83db6e60aU, 0xbe10304fbd5d9f92U, 0xbe1e2da93df23c6fU, 0x3d4d245d3c49c808U,
  0x3c9c8e73be0be5dbU, 0x3d5a61603e4aee8aU, 0xbe19e27b3d25da2bU, 0xbdae84483c166c62U,
  0x3e1b47c2bc80d77cU, 0x3dd3b48d3c2cd992U, 0xbc91d0883d7a0446U, 0x3c124a1c3e34e55cU,
  0xbe24ee913dfb860eU, 0x3ddf2b20bc8790edU, 0x3d821c373da70b98U, 0xbc9d7fc93d1684cdU,
  0x3e1698f53c22c0b5U, 0xbe29be383d5512faU, 0x3c231dd13e1eafacU, 0xbd3d18b0bcdf654bU,
  0x3da109583e00afe4U, 0xbea109d3bdd75ff9U, 0x3dd486bdbc8aa2e0U, 0xbcb92f50bcc69913U,
  0xbe07c1efbe45eb81U, 0xbdbbd5253deb0672U, 0xbdbcdddcbc0c0ca6U, 0x3d5d42acbdc19bbfU,
  0xbdb3da5ebc87bf2dU, 0xbe2cd839bdd505d7U, 0xbc66a6f3be55016bU, 0xbdb5a188bccb993bU,
  0x3d81b4953de84920U, 0xbcd22bd8bd922e03U, 0xbd3f64383d9f8d47U, 0x3ad1f8183e402890U,
  0xbe533d89bcaf562bU, 0xbde15ec83dec4f37U, 0xbdfd78ebbd900893U, 0xbe22b2623e1be13bU,
  0x3d329501bc0f6b8fU, 0xbea02f513a32c283U, 0x3d5b58dabd6a6981U, 0xbd948eabbe470148U,
  0x3d0b8fbebdb9002fU, 0x3b3666a3bd43ec40U, 0xbd8bbeccbd55b72cU, 0xbd18d0993db3c8c8U,
  0xbd48bb383cd4eef3U, 0xbc628a963c50d6d3U, 0x3db9b307bde1436aU, 0xbb021a0dbd65ae59U,
  0xbc922fd3be401075U, 0xbd8eecdfbd330777U, 0xbd824656bd0fda2aU, 0xbe87223ebe513b3bU,
  0xbdcdf043bcca0cdeU, 0xbdf1ad7abda39aa8U, 0x3df708e13c38444fU, 0xbe70580f3db71dceU,
  0xbbd65a80bec37528U, 0x3df2796d3cbf5465U, 0xbe290848be53eeb9U, 0x3dc313723d1fb872U,
  0x3bfd95aebcabe9dfU, 0xbdc684b9bd16e86cU, 0x3e4438e53ccb1492U, 0xbe99ff1c3d8469d9U,
  0xbe0c50b9be044089U, 0x3eab8da83d83c275U, 0xbe69d20e3d9d3339U, 0x3b91e28bbd6fbb76U,
  0xbf02633bbe264547U, 0x3ded76a6bdc19771U, 0xbd93d3d9be5bb914U, 0xbcf75b483d578106U,
  0xbc5b6a2e3c9b2f70U, 0x3db10c54bd78de61U, 0xb9430b76bdff1fbcU, 0x3cf7ef783d8bdf9aU,
  0x3e1dd5993d86ccbaU, 0xbe3a8fbcbd18dd39U, 0x3d91fc5c3d836813U, 0x3e21cbf8bcc06771U,
  0x3d6979f1bdbe7751U, 0xbe5e3ade3d24f700U, 0x3e7fa6adbde3ab9eU, 0xbe7322b83de58a8dU,
  0x3d22c6f9be2a3a3cU, 0xbe406f44be8edcf4U, 0x3e08ac9a3d93d06bU, 0xbd3ce7ee3e211b74U,
  0xbe671f2dbdbada1fU, 0x3d7f9185be2f41e2U, 0xbcad41013c8998b8U, 0xbdcc5d23bdd91547U,
  0x3d63b0fe3d8162e0U, 0xbe9d2884bd1bb916U, 0x3e742c5a3e081ea2U, 0xbf0ddc5f3e1de8cdU,
  0x3d607b9d3cd93e02U, 0x3d63b88e3d1099deU, 0xbe3990f4be6027cdU, 0xbea8755abcf94e25U,
  0x3cb126aabef60c7eU, 0xbe9445933e1e3a17U, 0xbbf909d2be6f5a45U, 0xbe00beae3d02880dU,
  0x3cc1c14c3d91f984U, 0xbca3eff0bd989d76U, 0xbe6e156dbde366f6U, 0x3e11aff8bbb83dd0U,
  0x3bd950f93d88853eU, 0xbe3afc57beabdf09U, 0x3c93ca31bdb66c58U, 0x3e3c95ebbdde72fdU,
  0xbd819b5abe28ffa8U, 0xbd3c735cbdcdc874U, 0x3b3442a1be0fffd6U, 0xbd9bf316be777ae4U,
  0xbe1bb006be2e495eU, 0x3e67ef703d520b0aU, 0x3e10bf38be7f903aU, 0x3e98a7b13e266c63U,
  0xbd0bd8cbbe720003U, 0xbd2a820ebe4bdd8dU, 0xbd4eefe9bc929f17U, 0xbea0d17ebc242cacU,
  0xbd379ee53daf046aU, 0xbbceeb4abe4bd1cbU, 0xbe3913f0bd644763U, 0x3bb803cdbea7ccabU,
  0xbe9646183d8e3ce8U, 0x3db6b4d6be201a21U, 0x3eb5ee93b9d56a08U, 0x3d86342ebcb738f9U,
  0x3e334991bd09af3aU, 0xbdf2d939bd855708U, 0xbe95cda33df59dddU, 0xbd18bc6abddac5a6U,
  0xbd9cdbbcbd3d8eeeU, 0xbdd4371bbe8e783eU, 0xbdf9ed86bc4b99feU, 0x3e9fc5833e1aeff1U,
  0xbe801110bcfadc29U, 0xbcd708fe3e6b54aaU, 0x3e10c7ac3e340cc8U, 0xbcc50f663e24f750U,
  0xbe005299bd64987aU, 0x3d6fcc6ebd025172U, 0xbf1756bb3d1637dbU, 0x3d0fe86cbe8e7c4dU,
  0xbe070c0ebe75dfdbU, 0xbe0d8cbabd9a24e2U, 0x3d96479dbd9356d6U, 0xbda884093e78f05fU,
  0x3d21c23dbd6a8f7fU, 0x3e0336b03d45cecaU, 0xbd036cf8be13ea17U, 0x3d95a8d5bc4fc5e0U,
  0xbd3eec92bd1fdf2eU, 0xbef75912bdd6d73dU, 0xbd50e7f2be7000daU, 0xbed70c4c3e095fe1U,
  0x3cd5f46b3bf9b05cU, 0x3de49c003b8e0b4aU, 0x3caea7e2be60ce31U, 0xbd91fdd03d4adae3U,
  0xbe2cee15be83ed40U, 0x3b042281be49a8beU, 0x3d9adc473c9b79d6U, 0xbe82e77ebdfdadfaU,
  0xbd4179d8bd85fde2U, 0xbda98ae1bc4699dbU, 0xbcf92ca63d85dd7bU, 0x3d5bacf43d28a61dU,
  0xbdd6227c3e11fd19U, 0xbdf31db03dcb6ca9U, 0xbeb5143b3dfb3c9bU, 0xbea4fb86bef220f1U,
  0xbd224b9b3d2aa46cU, 0xbdd8f2aabcd68453U, 0x3db864313e284065U, 0x3802d25dbd8c06f6U,
  0x3e365e983d7a6349U, 0xbe961741bd2c92dcU, 0xbd0a5f0b3e97daccU, 0xbeff9e04be760baaU,
  0xbd4db6b13c5fbfe3U, 0xbeae514bbe2322d6U, 0xbe1099a13da3046dU, 0xbeb8b6bf3db2c093U,
  0x3a16f6623daef81fU, 0x3b9c6e90be7f5c25U, 0xbe4ffb2c3da80d8bU, 0x3da75bf63c8fe014U,
  0xbd25d873be112620U, 0x3e1b820f3cefae88U, 0xbd0f8001be0f4441U, 0x3bbf7dbc3e15ff59U,
  0x3da0061fbd88cb06U, 0xbd5da1993d109224U, 0x3d39f81c3e01fa55U, 0xbe1fd975be1fe01eU,
  0xbe0fc9f2bd9068d6U, 0x3eadaf273d67fe98U, 0x3cad48b7be1d7f73U, 0xbd8e3af8bdccc7acU,
  0x3cb6688d3dd0f0b6U, 0xbd5ead31be8a5796U, 0xbd8927a13d4ca282U, 0xbe52c48dbe1a2ce5U,
  0xbc9858b8bd85773aU, 0xbcaeb525bd05501fU, 0x3db8c0d43d469c4bU, 0x3d64dd663d4f2f4dU,
  0xbe7aef4b3c45eeeeU, 0x3ccb68c0bdad9a49U, 0xbe12af373decec6aU, 0xbd1ec8dc3cd08a8eU,
  0x3d8516a63cbf20e1U, 0xbdfd8269bcd97b92U, 0x3dc85ae7beab5ba0U, 0xbebcf6c0be41011bU,
  0xbe1547d83dafc0a2U, 0x3d81c2d2bd99654eU, 0xbdde25923e089e88U, 0x3e0fb8583e0fca75U,
  0x3d3150d4bdad090dU, 0xbea5fc06bd45ba4cU, 0x3e0656e43cf86efbU, 0xbdcf3545bdb1cc8eU,
  0xbe41a86dbdb98bf1U, 0xbe598b1abf004d03U, 0x3d9e35f53d99eb2fU, 0x3da845ff3e48e497U,
  0x3cd2fb2bbd599a50U, 0x3d0055c4bdf21e12U, 0xbc855c64bd563f9eU, 0x3eacdab13d92a3dcU,
  0x3de96ecabe167fb8U, 0x3c2e0fe83e9c0944U, 0xbd9620c33c747646U, 0xbeb658ddbda45e7cU,
  0xbd6802fabcc32595U, 0xbc9ccad53ead46e9U, 0xbe260b0b3cb14332U, 0xbc4a832abcdb70d2U,
  0xbe82f8e5bde24fb0U, 0xbd8e75543e19ebbeU, 0x3e2b4848bdeacbbfU, 0xbdbfd309bc419fdaU,
  0x3e3f9ea33dec6448U, 0xbc442cacbc5ced1cU, 0xbe94bd98beec9f78U, 0xbd28f68fbdaf6093U,
  0xbe3c01f6beb3feb4U, 0x3e16f0d93e047b7aU, 0x3a640807beac6de7U, 0x3dffe8513dd8b1b1U,
  0x3cb26bf0bd62e534U, 0xbdbc3d63be3d4068U, 0x3d0641b8bd745aaeU, 0x3dc090933e9a7d2eU,
  0xbda80fdf3d09e4baU, 0xbcd9f3893b05bba6U, 0x3ebafbdb3eaf6e44U, 0x3dc695cbbd2e7ef6U,
  0xbb6458e3bddefeddU, 0x3c2e5d213db349b5U, 0x3dda1688bd91982eU, 0xbe047823be96c930U,
  0xbdb71cd13d5f4be4U, 0xbd219f24bea9c646U, 0xbc0547d23d8d5672U, 0xbe1121b6be17e77aU,
  0xbd3badf3be5820c7U, 0xbe5cc40abdba037eU, 0xbdc46e9ebe6107f1U, 0x3d8e8661bdc06798U,
  0x3ce9c5203c769ab8U, 0xbe2a69053e910410U, 0xbd5b5a0f3d532163U, 0x3e2b98e83dc6dd00U,
  0xbd94401ebe977629U, 0xbe4f8f8a3dbd5213U, 0xbda6cb9dbd323a9dU, 0xbe4b4039bdaf0851U,
  0xbe8374623cf8921dU, 0xbc9cb2c73c45c665U, 0x3dc95736be1e6004U, 0xbd07bd2e3dde8199U,
  0x3e5b112d3e5ac2e6U, 0xbdb591e33d31a806U, 0x3df0ec553d2fcea7U, 0x3db98a753e1e90d8U,
  0x3d22e95abcf3e05bU, 0xbb5d74913cf570e2U, 0x3e9db5dd3cec39bdU, 0x3b725fb63d2a7c73U,
  0x3c7687acbdbadd45U, 0xbd9cc4ed3e0880e8U, 0x3d429628bc410205U, 0x3d76d2abbcb6149bU,
  0x3d0fcbb3bdc5930dU, 0x3d74f7a33de4842fU, 0xbd9a9f9f3d478169U, 0xbd8d9d2ebd846becU,
  0x3d0971c33e038659U, 0xbd89c894be6a83bfU, 0xbd970ecd3e229632U, 0xbe255ec5be6b8006U,
  0x3d38981c3d000f0bU, 0x3d931abd3daba594U, 0xbd85feea3ded8ce0U, 0x3b849b8b3d9b2b0bU,
  0xbd5015923d3b94dcU, 0xbe362e8ebdd31e3dU, 0xbe9686bbbeb3229fU, 0xbe983cd53d8d7f20U,
  0xbd4d221b3dce653dU, 0xbe98e5ff3cb471abU, 0x3d6cc56cbe030a67U, 0x3e1e0f0d3e8a3061U,
  0xbd480fe43dcd5c58U, 0xbdd02a38be82971dU, 0xbe6ce67c3d9df04dU, 0x3cf277abbe7c68c3U,
  0xbd69b263bde37139U, 0xbe5ee7b8bec0f570U, 0x3c11ec1abd5ee8faU, 0xbd81ea173b39eb73U,
  0x3e61a01bbd03c138U, 0x3e3596713e1b5630U, 0x3e09c2a8bb96dfe8U, 0x3bc6cd1c3e33af04U,
  0x3df48c62bd21b532U, 0xbde0d6143dd57fc8U, 0x3d162dc83d772eb3U, 0x3d559bf63da0361eU,
  0xbeb4f56c3daf4892U, 0xbe0654d2be2ba7e8U, 0xbe7d2455be845900U, 0xbd6c7a6ebda993f3U,
  0xbeb018b8beb0dfe6U, 0xbd71a20a3e337d2fU, 0xbe702aafbeafe02bU, 0xbe0964403cbbe74aU,
  0x3e85237d3d497a60U, 0x3dc999e73e30c6faU, 0x3e44cb99bc347544U, 0x3c3ffdc63d40d1c7U,
  0xbd412313bd584b6cU, 0x3d148f9e3d91f7caU, 0x3e3a75553e29e3b9U, 0xbef4772bbe0df729U,
  0x3e17ebcf3e7301bbU, 0xbe7d7721be0270feU, 0xbdbd2782be6a4290U, 0xbd215120bd9c79e6U,
  0x3e119621be97dde3U, 0xbe7395f2be952cfaU, 0xbe8fdad8bec53194U, 0x3e0f8097bdaed2feU,
  0x3db695b9bc4b214bU, 0xbd689de33e21c909U, 0xbde315bcbe6a3901U, 0x3e005cc33dd75479U,
  0xbdd2b96ebeece9e2U, 0x3e028b453df29a94U, 0xbda0736e3db29528U, 0xbce5dffabd13f8b3U,
  0x3d6b00e33d1715a6U, 0xbeadab58be11b7f9U, 0xbe201aba3e0570edU, 0x3e63f6cfbdbdd6a8U,
  0x3c3a7c803d1aec11U, 0x3e76aa583c59c896U, 0x3d9250363ce30fe2U, 0x3e26cd5abb7395a3U,
  0x3e041647bdef4ecdU, 0xbd4af20cbd88fe26U, 0xbd95817bbd9563d9U, 0xbc33a4a1bdd697d1U,
  0xbd86e127be6713f0U, 0xbcf75426bcb2aa34U, 0x3d06fe81bdce2ab2U, 0x3e82dc863e02d064U,
  0x3dffd3d6bd96e44fU, 0xbd28d6323e12aa7aU, 0x3d9cc6b9bd31cd29U, 0xbe1693323de38a23U,
  0x3dbb79bfbdca7c60U, 0xbc27cfdabbd7f6e6U, 0xbda1ede5bec44888U, 0x3e4167babcd70352U,
  0x3c0233da3e342c8cU, 0x3e05972c3e3cad6eU, 0x3caf521a3e41d72bU, 0xbdc2ee3abe207eb1U,
  0x3d97951e3ded2009U, 0xbdff2f83be320f8dU, 0x3e4c9f413df51352U, 0xbd97bccbbcc7b159U,
  0x3da449463d0f1b17U, 0xbe491eadbe478d9aU, 0x3d8721713e2bb023U, 0xbe9e6f04bdc1aaddU,
  0xbe5ea9603d930f9bU, 0xbca35adcbe982fb6U, 0x3e9de7c03dc984abU, 0x3d4e4d443dc5877aU,
  0xbd65ec7fbe1925a1U, 0x3d0b1c6a3c0299afU, 0xbe17c0bfbed5db0dU, 0xbda9a66fbdf24306U,
  0xbd191454be5392c1U, 0xbd3643363cef28b0U, 0x3d29fe4e3d1bac2cU, 0x3e4ec8cf3e4eb37aU,
  0xbd11fb083e097618U, 0xbdfa7318bdd8712cU, 0x3de0d4673db1bc60U, 0xbd9813c1bdb6f9d2U,
  0xbce291f93dba6364U, 0xbc083411bb9feaf2U, 0xbdfdc62bbe7b9390U, 0x3e7d6bbf3e9ec116U,
  0x3c190052bdfd22d7U, 0xbdc44a463e140a14U, 0x3e59f6d93df5d288U, 0xbe86c5acbea4a12fU,
  0xbd4fd934bd6180abU, 0xbccb8e1dbe0835f4U, 0xbd2fd5e53e59e7b2U, 0x3d69f1c73c564f45U,
  0x3ce278813df1a523U, 0xbe103b6cbb12a029U, 0x3e0271973e0fdd95U, 0xbe8066b53d760afcU,
  0xbdae1a3ebd8d007bU, 0x3dda8e6dbe28931bU, 0x3cdaa3743c7ad99dU, 0x3e7454b4bd84f86cU,
  0x3e0421073e84252cU, 0xbdb009133daabe53U, 0x3c5afb6a3c002a85U, 0xbeac14233d7e9269U,
  0x3c49ba2c3d740574U, 0x3e2e987abd070213U, 0xbde6784b3d3bd085U, 0x3ee2914f3b58e495U,
  0x3e86e357bdbac84aU, 0x3e4ed01e3e89ef9bU, 0xbce693eb3d8d870aU, 0xbce4c279bc4a55beU,
  0x3bcceb203da1e187U, 0xbdd36e73be96f519U, 0x3a4496533e601706U, 0xbe0649a1be988a3dU,
  0xbd157710bd721fbeU, 0x3e18a1f7bda55350U, 0x3c1e1ea0be10a8b5U, 0x3e8667213de27e3cU,
  0xbe11b07a3d61ccbcU, 0xbcd648fc3dcd3766U, 0x3d99843dbdd354bcU, 0xbe4671d7be8ed716U,
  0xbb8073c23d6c439eU, 0xbcdbf4ad3d0cdc06U, 0x3d2235363e2153d3U, 0x3e2492ac3e143ca7U,
  0xbcc884d93db6ec20U, 0x3dbcc6a63cd6123cU, 0xbd308f2dbd971a0bU, 0x3e6899dfbd728cfcU,
  0xbbb7f1afbde176deU, 0xbd0e1086bd75c547U, 0x3bfe8c463de8e7a3U, 0x3df0d1fbbbd42fd5U,
  0x3df02a093dd4ff12U, 0x3e94ad23be4d99daU, 0x3e2666223e894398U, 0x3e3460f8be1db38eU,
  0xbac6f16b3beb065bU, 0xbd5a09b73df79c88U, 0x3cb2ecd8bdb29ddeU, 0xbe83190bbd945981U,
  0xbd26fe45be452292U, 0xbbb29107bd896c90U, 0xbdbf98cc3d8fb8edU, 0x3e2c43ec3d68bc2aU,
  0xbe6c6cecbe1cae24U, 0x3cdb8035be5e4767U, 0xbd2e5117be371c95U, 0x3c98650a3e384722U,
  0xbd4879423e3d95caU, 0x3d92f7d53cab7697U, 0x3d2e073f3d7bbe6eU, 0xbe7b71ccbef6f13aU,
  0x3ce08d98be8674d9U, 0x3d9dae86bd650c81U, 0xbd705f9abe5ca259U, 0xbceeae83bd49f340U,
  0xbd88681b3dd0a9baU, 0xbdf38874be739073U, 0x3e36e6213e06c135U, 0x3d19ccef3d48424dU,
  0xbe6701bf3bd5d9b6U, 0xbe5a52d3beb03429U, 0x3838dd1e3bb4c9d9U, 0x3d25f2a1be06674aU,
  0xbd30d56abcb67762U, 0xbd7693313c8599d2U, 0x3d2c911bbdb5a761U, 0xbe098b9c3dacb1bdU,
  0x3d8c2f82bd8e5f66U, 0x3d639beb3db05452U, 0x3dcd49b33df7e598U, 0x3d8df8d6be02fa01U,
  0x3c977b3a3c90dd7dU, 0xbd4e2f06bdb0532aU, 0x3d66e30ebd9c043eU, 0x3dfa19fc3e2f53f1U,
  0x3c0b7128be5a0797U, 0xbdb7d3a8bd6aa011U, 0xbe5bbb2bbe0840c3U, 0xbec333e4be8968d5U,
  0xbe1a458bbe93b8a2U, 0xbd9add44be12480eU, 0x3e2fad3bbdc1c659U, 0x3e5529fd3e254d9dU,
  0xbd69d96e3e1fcbe0U, 0xbe637a58bd794ad1U, 0x3d40cb10bc92a14eU, 0xbe9254d9bc8f4537U,
  0xbd67de4bbe239f9eU, 0xbe7365b5be2a3643U, 0x3d1f1050bd801797U, 0xbec1f9abbd8fedb0U,
  0xbd9b1818bc13d7a6U, 0xbcc7465c3da0c3ddU, 0x3c1c3bc0be883b73U, 0x39e719f03dd44979U,
  0x3d24615dbe0610caU, 0x3d199e513e407f15U, 0x3d05f71bbd970536U, 0xbe210ee7bce00abcU,
  0x3e1a74a43eaf2afdU, 0xbe1120e43d7df1b1U, 0x3e1ba30e3e322efcU, 0xbf4a847ebd899de3U,
  0xbcebebd8bdfc9e4dU, 0x3dbf1eb03e092cedU, 0xbcb43804bdd7ab0aU, 0xbef931313d7ba944U,
  0x3b991cd53e56fb75U, 0xbe4cf867bd96a8dbU, 0xbcf1ee753d99b2d6U, 0xbe024766bd1412f7U,
  0xbcd59e36be86b788U, 0x3c94518a3e65c9dfU, 0xbdbcaa7dbe537b66U, 0xbd15fdbcbcbdbf9bU,
  0xbe74de5ebe90ce70U, 0xbd84a320be82d0fcU, 0xbe76d0f63d7aa24cU, 0x3da19e35bdc2f29dU,
  0xbd426e11bd75c8afU, 0xbdb21c3a3d19d07fU, 0xbe75b0a5bcad5a6aU, 0xbdd3a260be985390U,
  0xbe55702bbec4eed4U, 0x3e4d7f113e11bdc4U, 0x3d2b7651bea752b9U, 0x3e3dd8303db666b8U,
  0xbe79dcf33d984d81U, 0xbd63a66c3d4b98d3U, 0xbdcea2813d20ec12U, 0xbe22ea9ebd9699abU,
  0x3e24a4a33d4b55cfU, 0xbd9664723e34ab60U, 0x3d95460f3d89fc60U, 0xbda15895bd8f1f26U,
  0x3d3a78b53d1fc1bfU, 0x3cf7576f3db386c3U, 0xbd12e4d43e6909bbU, 0xbeac3bc53d3010c1U,
  0xbe84d8b0bdbe892aU, 0xbe050dc0be8d9a9cU, 0xbdb8e3713dc12ebaU, 0xbde36c143d770a23U,
  0x3dc6b21c3c8e3731U, 0x3dcdf3d23e9c88c1U, 0x3e819535be283414U, 0xbdfa2d1f3e07c14aU,
  0x3d0898a73ba620e8U, 0xbeccbbd73dd36621U, 0x3ca7f2a0bc5319a2U, 0xbd5ce6563df6d6d6U,
  0x3e61d2da3d90c269U, 0xbe1ed61c3d029c59U, 0x3e2dfae3bb79e69bU, 0xbdb41f923d51b79cU,
  0x3ddddbb73e1d71d6U, 0x3ced0d4dbd868c96U, 0xbe07ce84bdcb4562U, 0x3e0c388abcd3739eU,
  0xbc90969ebe12494eU, 0x3c6d30e33e037a2dU, 0xbd23c1f23c6cc2a9U, 0xbe94099cbc3cd60dU,
  0x3a8496f3be9432e4U, 0x3d7f7ebb3d7b7091U, 0xbe929b583b7fa4bfU, 0xbc56bb1fbe1b9725U,
  0xbd04f0ff3e15bd50U, 0x3e23fa133cd4eadbU, 0xbea7d67ebd277fb7U, 0x3caab6e8bd6883f5U,
  0xbe7a4bf4be0f8162U, 0x3da22d443de8489dU, 0x3e3ab4b9beaebe8bU, 0x3daf230b3ce9f92cU,
  0x3c26eb51bc87e4c8U, 0xbd0c5944bd12c1afU, 0x3cea1d97be691a38U, 0x3e1024bd3d9696a4U,
  0xbd1853c83ab60b34U, 0x3db57cb6bd1781dfU, 0xbced810ebdc28245U, 0xbd27d2e13ddfee0aU,
  0xbd86873a3d1d0d90U, 0x3d4f05e0be2a4c81U, 0x3e24f21b3e688576U, 0xbd747af6be021070U,
  0x3d445ce5bdcd88f3U, 0x3da1af0c3d1ee315U, 0xbe0dd95ebe3209e2U, 0x3c925e32bcff3625U,
  0x3e00cbe43e2b0e1fU, 0xbd628e923d3e0f4dU, 0xbcb8e1b43e0c2311U, 0xbb1c938abe036e9aU,
  0x3de6a6463d15c886U, 0xbe891338bcfc0b4dU, 0xbd9e408fbd64b414U, 0xbd99125cbc901018U,
  0x3e1837a93b8b2d6aU, 0x3cf579783d8df666U, 0x3af36f0e3e2a993eU, 0xbe0dbda2bd867983U,
  0xbebf6e08beb01875U, 0x3d3433a2bdb3c921U, 0xbea9c51fbe3415b9U, 0xbdd0b0bdbe4a2dfaU,
  0xbd71fab6be6fb4b3U, 0xbd238215be54050dU, 0xbdc47803bf1c91a9U, 0x3cf136c9bdb5e219U,
  0xbdec37e0bcc2d055U, 0x3ddc1c4bbe364997U, 0xbe2093edbef60db4U, 0xbda2e77dbd37bac8U,
  0xbdade048be6d8be6U, 0x3dc48a11b9525daeU, 0xbe455023be1c5548U, 0xbcfc4ab9bbefdabcU,
  0xbd4ef4e3bf13c1fdU, 0x3b8aadbc3cd31c9bU, 0x3dd624a0be0e8c8eU, 0x3e209b013e312df4U,
  0xbe573729bedb2d20U, 0xbc35b9cc3d2329caU, 0xbe10decbbe6aca8aU, 0x3df0c3a63d1f2462U,
  0x3c4088f9be0f4cbeU, 0x3cc9b2503c14aef5U, 0xbde0e0aabe6fc2fbU, 0x3dd0ea0cbd03ac3aU,
  0xbe555c573e1425cdU, 0x3dd99cf43ddf2082U, 0xbd0a56fe3e0a572aU, 0x3dc1dd44bde40c51U,
  0xbe7143203db35919U, 0xbe40718fbdea9fb0U, 0xbcf8a2ecbe593a7aU, 0x3e0edb283df17c27U,
  0xbe0d077fbeb8a235U, 0x3e1ca1993e6dee60U, 0xbd38a3adbd916a28U, 0xbdff5ecdbd55ef1aU,
  0xbe4360debe64683cU, 0x3e932f56be01c08eU, 0xbe0f91a23de5b15eU, 0x3e1ab3d73daed6f6U,
  0xbbfaeb32bd3334efU, 0x3de18a393d893d1cU, 0xbcf6b6f0bdaea579U, 0x3e901b723e4ff8adU,
  0xbed27c673e6114d4U, 0xbe1a0aebbde1c1e0U, 0x3e4fdf3d3e19b236U, 0xbd8aa2163d5229e3U,
  0x3d88235d3dc14ce0U, 0xbe46c1b7be1454d4U, 0xbe3a9cb5bc9255eaU, 0x3dcb6f17be818989U,
  0xbeeec43d3cb88366U, 0x3dab65a8bee0ab68U, 0xbe7a79c4bcaca89cU, 0xbe382000be36818cU,
  0x3df7c2343df04941U, 0xbe2828bbbddbaec4U, 0x3d59ac4c3d525654U, 0xbd8f8ef2bd99c368U,
  0xbe4af331be5cb93fU, 0x3e3b1880be4ebed2U, 0xbd9be824bddcc8f8U, 0xbe30b94bbc79693eU,
  0xbd2329053d7e5d63U, 0x3d56841e3c992f09U, 0xbd271aae3cb18fd4U, 0x3d7d2c213d61e534U,
  0xbe7f6449be511d52U, 0xbe9d8ae3be9b95ecU, 0x3e1baf0d3e6e4a75U, 0xbe6f8641be24f025U,
  0x3e8a8d613dd020daU, 0x3d9c90543e012fbcU, 0xbcad2a243dc0254fU, 0x3e098a353d134ee3U,
  0x3eb43fb63e745460U, 0x3e80d411be002e21U, 0x3c7d189b3c4cae88U, 0x3daf95e53c8dbc1eU,
  0x3e4c82013d6feed3U, 0x3c47957bbe18a665U, 0xbebe3eccbf02615cU, 0x3df45e73bdb034bdU,
  0xbdcf37723d91c827U, 0xbd80f21fbe424ca0U, 0x3d09da3bbe80ff52U, 0xbe9a9dc3be140a95U,
  0x3d84ff5dbda6e2b1U, 0xbecc51613d3378aaU, 0x3dc8add33c1a2facU, 0x3de78c603ba06c81U,
  0xbe811fe9be0130cbU, 0x3d191c0cbe233198U, 0x3cd5788abe22f234U, 0x3e8e8e5cbd2e7d29U,
  0xbd8f31f03e0434ceU, 0xbd3f64d5bd0db40dU, 0xbea1801a3de12b52U, 0xbe22c3d4be7a5891U,
  0xbe50d3f93b86834aU, 0xbe17d628bde80d3cU, 0xbd1b86333d02db20U, 0xbe02fae5bcf2b80cU,
  0xbe1ab2763e311f06U, 0xbee05b59be628930U, 0xbd4298473de06758U, 0xbeae8730be7b7fb0U,
  0xbefc82f2bdb6d7daU, 0xbe05c86fbee17099U, 0xbdb1f9583e3227afU, 0x3d80d6dbbc89bc8aU,
  0x3dd41f593e0ca595U, 0x3d0e4b79bdf0a1cdU, 0x3c85b6c33c03fa73U, 0x3e84a6973c72e4b9U,
  0x3e1bdb073e011c71U, 0x3cc95f83bdc94688U, 0xbe110d2d3a96d99eU, 0xbe2e6b03bde8ee91U,
  0xbda2ef783a8266cfU, 0xbda2b7ef3c80e78fU, 0x3da95b013e133188U, 0x3dc53f4a3d81a3bcU,
  0x3e12e1bb3e423a82U, 0x3de74d483e54ec9eU, 0x3c986c363dc48a46U, 0xbda620353de33819U,
  0xbe3ac3013c2f8061U, 0xbe7e18c9bda3a736U, 0xbcef6c633c980296U, 0xbd52c170bd6624fcU,
  0xbe1c05b1bd6f7d36U, 0xbd2cc6b2be857fd3U, 0x3e0d02193dbe7e8eU, 0xbe321b023d6967a9U,
  0x3bbb56cb3e489603U, 0x3d7ecb313e54cd28U, 0xbed1e21fbe9a5c2bU, 0xbe3cc513bdd6c8beU,
  0xbe092192bd873084U, 0xbda748fcbdb4ee57U, 0x3cb364413e537c96U, 0xbe5dfc8dbd381159U,
  0xbd561d8dbdece5beU, 0xbeab3b893d4fd249U, 0xbd1a253ebe47a033U, 0xbe1e40703e8e453aU,
  0xbe89310bbe8bbe30U, 0xbe1b5ffabeb46bd6U, 0xbd55c654bd05bb39U, 0x3e1c5603bcc17e97U,
  0x3e457f3d3d260955U, 0x3cbf37bd3e468519U, 0x3cf57fa3be19f183U, 0x3e9e3b803e43ac30U,
  0x3e22e4fcbc35cd20U, 0x3e90e91a3e606b09U, 0x3d014520bcf48cf4U, 0x3d27b77e3cb1c6b9U,
  0xbe300b0d3c248f71U, 0x3e3881b13dcca099U, 0x3d48a91e3dbf5fc6U, 0x3d9493243ce2319eU,
  0xbd327bc93d53e181U, 0xbe08773e3e5c30feU, 0xbdea5800bdf86a5eU, 0x3d20a937be0287cdU,
  0xbc8b73ef3dac0a36U, 0x3d8a33063dc13cc1U, 0x3a1411e63d8005f3U, 0x3d5b2e7a3db25ccdU,
  0x3c04fd77bc9611e0U, 0x3e525d8a3d934b8aU, 0x3c7f064cbdb0ff57U, 0x3d797991bd9a8316U,
  0x3dd9081c3d94217cU, 0x3dc5d65bbe1d60cfU, 0x3dbcb27a3e1ab34eU, 0xbdcab9473d94fb82U,
  0xbd5416bc3e4f05ebU, 0x3d3cd9a2bcc41e10U, 0x3d811bc93d2333ccU, 0xbe19bfff3e1bba9aU,
  0x3cc28059bddfd1fcU, 0xbe21c44fbdcf5d58U, 0xbe9b71ffbe496325U, 0xbe01dc50bea0a82bU,
  0xbbe1e4b1be5034adU, 0xbe57cfb03d209ad3U, 0x3d8d85363da30ef0U, 0x3d98442fbdc5e8c6U,
  0x3d45272d3e076d9bU, 0x3cd4cc7fbd940db8U, 0x3cb1a1213d928886U, 0x3e3953d53da04ddcU,
  0x3be527d2be247b80U, 0x3e57cafc3e34df4fU, 0x3d408a5e3d7ea0feU, 0x3e3db3d23de6d92aU,
  0x3deb613ebd1c739bU, 0xbeb7c494be3b7f31U, 0xbce4b3b9bd094c65U, 0xbe52234dbdc06d51U,
  0x3a4d586bbe5d074eU, 0xbd9e2686bd3c5c94U, 0xbdb894a13e15cd6aU, 0x3d44137f3db89994U,
  0x3dc963af3d4c82c2U, 0x3d0541553d8a0cd8U, 0x3ddc0c353d882f46U, 0xbe3d240ebd61b9dbU,
  0xbe969d3abe0d946aU, 0x3dbddb63be8e89c8U, 0xbd7656ff3c3fb565U, 0x3e54bd75be1b832fU,
  0x3db1eca8be19b39eU, 0x3df763723de0e9e4U, 0x3c89fd8e3d56fc83U, 0x3e53b1c13e650272U,
  0xbd847b3cbdf4736cU, 0xbd4674dbbcebf136U, 0xbd1a39db3e1cab87U, 0xbe2b26b4bd9c3b3fU,
  0xbd97581d3b5717c7U, 0xbe811481beca567bU, 0xbe4a1fe73d0d87fdU, 0x3d903156bc09ee56U,
  0x3e82e1b9bdc108b2U, 0x3e88d6f73e8fbe7cU, 0xbe5bf4f5be8b7f39U, 0x3e13d1b93e68efedU,
  0xbe4c55acbe02d681U, 0x3e006fa2bd362598U, 0xbded4ad0bcafc57dU, 0xbe92e7c3be394c6dU,
  0x3d7aa63c3d4f0d93U, 0x3dda35c53bb24e1fU, 0x3d5889123d576546U, 0xbcda4a04bdd726c9U,
  0xbd0609fdbd67123cU, 0xbddf28e5be34390eU, 0xbd994be0be27803bU, 0xbeb91774be76d1b9U,
  0x3d1ae4d3bdfa696dU, 0x3d3a59aabd1e9b86U, 0x3b178e393c967b15U, 0x3e2663243d8c5ffdU,
  0x3bad04b43e3c3873U, 0x3d377e203dea2598U, 0xbc9007483e0542eeU, 0x3cf06af1be925843U,
  0x3e2350c3bd1ad3d5U, 0x3e1c09163e1eba9bU, 0x3dc325debd1d8ce6U, 0x3d891aed3e2ad872U,
  0x3da201c4bd9636d2U, 0xbdd16cb3bd1aaf61U, 0xbdab96803e1282d5U, 0xbcc57089bdbb5e74U,
  0xbd540bc2be78c765U, 0x3e3120b93e0bf37bU, 0xbd8369eebb85e553U, 0x3e76ac413dc8cea1U,
  0x3cc367f63e1950bcU, 0x3da18fc6bda3a597U, 0x3e0147243e110c81U, 0xbe826e16bd84295bU,
  0x3c14b5d3be25cad8U, 0x3c06205dbbfa4552U, 0x3d691a14be35a870U, 0x3e8610de3deb88abU,
  0xbce9ada93c369824U, 0x3dba7a613d667894U, 0xbde99264bd081ee6U, 0xbee5cb383bc49f6cU,
  0x3ccac464bc95e598U, 0xbe2f5fbebdc5c0c2U, 0x3e312b46bda3a101U, 0x3de6abf2bc93096cU,
  0xbd1f5d79bd846399U, 0x3df2e5053ddde4ffU, 0xbd1d3318bde3bc13U, 0xbd043967be4b9e76U,
  0xbc0a790e3d9c7d50U, 0xbeb697b8be8cb631U, 0x3e0731f33d7eb5f4U, 0xbeadd5c4be416920U,
  0x3e3905cf3e1eb692U, 0x3df7fd7cbd090966U, 0xbda746debe5e32a5U, 0x3e80f490bbc6e0c1U,
  0x3d7d0c16be3296bcU, 0xbc3585583d83240fU, 0xbe01577ebc5c80ecU, 0xbdc8bf9ebde7c814U,
  0x3d5da3c53d3a0654U, 0xbc2edd18bd67dea2U, 0x3e006f323df28785U, 0xbd9a7a9fbc721234U,
  0xbd0c1f673dc0f532U, 0x3d9be586bd201973U, 0xbcf0f910be099b25U, 0xbcd83b4b3e126855U,
  0x3bd05ab73def1a73U, 0x3e2bc21abdd08e6dU, 0x3df3b7503cdbb2aeU, 0x3e7e9bc4bd83418aU,
  0xbdd4f54f3d1db02bU, 0x3da07e9dbd0cb491U, 0xbd1740313db5b87cU, 0x3dff6d6a3d513846U,
  0xbca2791b3ddfe03dU, 0xbd7286f7bc386693U, 0xbe3426e33d666ad7U, 0xbdb1c658bdb88e4eU,
  0x3d7fc5373da7680dU, 0xbefe2179bd34b155U, 0x3e4af464bd53667bU, 0xbedd3391bca9efa5U,
  0x3de87884be571216U, 0xbb809dc8be1e5092U, 0xbef58207bef11686U, 0xbd723a1fbc3e0c2cU,
  0x3da5dcfebc9f5d37U, 0x3e875ed23e88d8b3U, 0x3de944fc3e16ea15U, 0xbe05dc94bc80f759U,
  0xbe031ab1be4385e9U, 0xbdc03ebbbd95ad18U, 0xbcf30edfbe90b0d9U, 0xbdc25783bdc5e5f6U,
  0xbdea63113e635f89U, 0x3e78604ebd44d2bcU, 0xbdc1c53abda74499U, 0xbebf9fc6be4f0ec1U,
  0xbe0fa353be269444U, 0xbdd74677be1f544dU, 0xbd2a5ccd3e1a8ee8U, 0x3d01f4d0bdd7de34U,
  0xbe99537a3db97185U, 0xbe9a8246be9fabebU, 0xbd05e38e3e2e33d8U, 0xbe1992ffbd50915cU,
  0xbcb9eae13e03cd04U, 0x3e01f0df3e49881cU, 0x3db6d0b53e509a9fU, 0x3c0da57fbc9d91eaU,
  0x3e4f807a3d4943bbU, 0xbe30830b3daf6c83U, 0x3d1f389e3e0f2b25U, 0x3eac4246bd0db446U,
  0x3d36718b3d1d17efU, 0xbdd1729bbd862b7fU, 0xbd844120bd1c9d5aU, 0xbe1647eebe02abcdU,
  0xbdefb2abbea23ec8U, 0xbd9ca4c03d25508eU, 0x3db0f4bdbdfe7b9fU, 0xbe64d1173def3c13U,
  0x3e2df63c3d232589U, 0xbdb2ff153b055645U, 0x3de56a5c3e0298e3U, 0x3c96fa34bdb0f87aU,
  0xbe4d0128bec1d9baU, 0xbdcd0d82bdeb6fe0U, 0xbe62befebedf6603U, 0x3e06d352bd5eab44U,
  0xbc8c68debcfbd70dU, 0x3dbe78de3da67e69U, 0x3e07cc413d7bb632U, 0x3cc410103dd9f60aU,
  0xbe176c2abd4c89f1U, 0xbe9ca952be019bb4U, 0xbdf6e96dbd1d9298U, 0xbd8a950bbddbef99U,
  0xbe245057bc7a4945U, 0xbc772486bddb9f73U, 0xbdfd38e5be18f698U, 0xbe73b67bba8ad5daU,
  0xbdfdd66fbe2812e0U, 0x3e0fd6ecbdfadb27U, 0xbd058624be82b823U, 0x3e899e4fbd4c8a16U,
  0xbd7a3be33e6eacbaU, 0x3e0807013e16cf32U, 0x3e186aedbd92f100U, 0x3e2f17b03c9f8d06U,
  0xbda7194a3e11f505U, 0x3e4d28853dedd3c8U, 0xbdf1207f3e3fd180U, 0x3e0713723de773baU,
  0x3c04e1dbbeb7d804U, 0xbe8dda58bdc59ff8U, 0x3cfbe8e4bdb2fa33U, 0xbceffc01be064b01U,
  0x3d80668d3dc6a1b4U, 0xbecef155bcb7e509U, 0xbd2eb9b83d2ff621U, 0xbec66aa6bdbffeeaU,
  0xbbbf31223dd358abU, 0x3cae323b3e55caa6U, 0x3e1fcbb93d613c5bU, 0xbda590ffbcad3d0bU,
  0xbeded091bd6c76ceU, 0x3d143427bca130cfU, 0xbe7423a0be93dbaaU, 0x3e5dc7e33dfaf7a2U,
  0xbe984065bf1e1869U, 0x3d52ef6f3d2cbbf9U, 0xbcb86596bece10b0U, 0xbe62f8eebe12ffbaU,
  0xbd41481d3e0275fdU, 0x3df13eb2bda90953U, 0x3cb38c2cbe1ebb03U, 0x3e058c4bbdaf7ee9U,
  0xbd7e0ad7bdf76337U, 0xbd2751113d6741e4U, 0x3e5345803dd09573U, 0x3e4b160f3e38fe96U,
  0xbdd71dedbe2d84d9U, 0x3def0d193db4c5c5U, 0x3dcb3245be8264f9U, 0x3d6e5fc63c321674U,
  0xbdb50d0abe8d4c64U, 0x3e842cc03d59e58fU, 0xbcde8dfebe640004U, 0x3a80c7533e241568U,
  0xbe204742be8658beU, 0x3e3bf0293e265c2bU, 0x3c7dc792bdfbc04fU, 0x3d2156b63c0c71d3U,
  0xbd6ad9d0be722260U, 0xbe5e24d03c36321aU, 0xbc27f069be5fad3eU, 0xbe117592bd8239e2U,
  0x3e5e1d033e85ff96U, 0xbdfe263fbd20f4ceU, 0xbe13c1c53e2a7f99U, 0xbe22d719be71258aU,
  0x3d86474d3d2dfeb5U, 0xbd63d0a0be815838U, 0x3b50f6f7bedcf0bbU, 0xbe1c79a8bdc5b62bU,
  0x3de7c0e33db9398aU, 0xbe5f2bfe3daaba9bU, 0x3d93f8a23d7ed967U, 0xbe871a08bd92727fU,
  0x3d195c85bdbae203U, 0x3de96e40bcb973d1U, 0xbe264614be1631d2U, 0xbd02d2ac3c153737U,
  0xbe36029ebe43303cU, 0x3d501d8fbdff0fefU, 0xbd881ccebc9d58a5U, 0x3d8d8604bdcabb37U,
  0x3db0d1bcbc99f7fbU, 0x3d4b4fd4bd14ac2fU, 0xba7b27a2be784591U, 0xbd6dceba3ca8806cU,
  0xbe005d34be5bf506U, 0xbe05d77cbdcc25aeU, 0x3ebad1d03d2e70dbU, 0x3e98d7efbd0c183fU,
  0x3bbe034fbe104c3fU, 0x3de4a2303e38fc72U, 0x3c7c42f8bee10c5cU, 0xbcd5f66ebdadb706U,
  0xbe8d5ab2bef56239U, 0xbd62f84ebe45ca13U, 0xbeae30b8beac1663U, 0x3d9000eb3d517674U,
  0xbc79494f3cb1f433U, 0xbdec64e33d8b8230U, 0x3e3be4643e5ee76aU, 0xbe3a85af3e03a33cU,
  0x3de395fa3e119882U, 0xbda16fda3dfd7e39U, 0x3d524a5b3d601842U, 0xbd935218bdcc4f71U,
  0xbdfca6133e16f475U, 0xbe529a19bdd7b671U, 0xbea0b20fbd86c0c6U, 0xbd948f71be86132fU,
  0x3de9239cbd04a7f7U, 0xbeb09ebcbe2ad0a7U, 0x3dc2adfc3d33bceaU, 0xbdc3b566bd8c7815U,
  0x3dca306c3d1790a6U, 0xbd8d92433e2c1e39U, 0x3dfd8c9dbd93bd59U, 0x3dd2672cbd8e6825U,
  0x3ec85a993ebfbfa5U, 0x3da0e68c3e9ea1a2U, 0x3cec92e33e2d67abU, 0xbe2163763ce48dcbU,
  0xbd21ffa43cd358f2U, 0xbe628484bd04712aU, 0xbe61553fbe75232dU, 0x3ccd3c31bc2f3e68U,
  0xbe0f3aaebe6dd79cU, 0x3de7e993bbdeba96U, 0xbe5dca523d7c14b5U, 0x3e70787a3d59f30fU,
  0xbb9364e33d5e9ea4U, 0xbd291ecd3d5febf0U, 0x3d9cb340bdd23896U, 0x3e31ba6f3dace7f5U,
  0xbd4236013dab02d1U, 0xbde853a8be47d054U, 0x3d9056663d5a1b1cU, 0xbe0b278a3d793298U,
  0x3caa2198bd3c86f7U, 0xbe912f92bdec1a2bU, 0x3dbfe7ad3d5d6bc5U, 0xbe197c93b915bdb3U,
  0xbcbd2310bcc5dfd5U, 0x3bf333aebde63dafU, 0x3dc5a9603d17d95aU, 0xbdf740063e3cc90aU,
  0xbdade91b3d30ba45U, 0x3e137d033dc87cd9U, 0xbe32efc3bddc53b7U, 0x3e19c4513e0fe333U,
  0x3a7320093e85095bU, 0xbc434e293dd40ccdU, 0xbe3685a4bb7249c4U, 0x3cc2ccb3bd9d4d6dU,
  0xbe834a3ebd9112c5U, 0xbcb11c28bd131ecaU, 0xbe1b1f7dbebb1985U, 0xbe9fee6fbe135931U,
  0x3df44df53db33cc6U, 0xbe4908aa3e09f0a8U, 0x3e1dd441bbeeb3c0U, 0x3dd934d03d89097aU,
  0xbdb68f3a3d8c1c07U, 0xbdc647433df5da25U, 0x3d56d9a93e35c769U, 0x3d204237be3ec1b0U,
  0xbde168303e186788U, 0x3c77e8b4bcf631eeU, 0xbdf362d03e0b1ce6U, 0x3e22f644bba4507eU,
  0xbd589b52bd9fb17fU, 0x3d66b4afbd1f0ca8U, 0xbe270f46bde48b58U, 0xbdd18328bc7cc7ceU,
  0xbd4335843e8916a8U, 0x3e6a6296bda39c64U, 0x3e0f77bcbe38ab4bU, 0x3e04d31a3dac863dU,
  0x3d08ebba3d9f8261U, 0xbcc7969abca54f84U, 0xbe942b87ba05a475U, 0x3d7ccdc83e0c1c4dU,
  0xbdfff9f1bd18ac9fU, 0xbe08d59d3e1645caU, 0xbe843806be13ea7bU, 0xbc8eac483e230ecdU,
  0xbe536480be0b48efU, 0x3b4f177fbde21fa7U, 0xbe33559fbea51959U, 0xbc2584e0bd96aa2bU,
  0x3de91a5d3ae19384U, 0x3d82d66a3d3f1faeU, 0x3e76dd343db4bc33U, 0xbd9c32563d375a4bU,
  0xbc892b9f3de0e7b1U, 0xbd979cb1be1839c1U, 0xbe7dbfb3bdd9600dU, 0x3e277e82be3b9362U,
  0xbe2b84a5bd898213U, 0xbe2dac22be835d55U, 0xbdde6b7bb92dbbffU, 0xbb65161dbe0298fcU,
  0xbe2f48b9bd4042baU, 0x3dce0030bd865f7fU, 0xbe84265bbe41db1dU, 0xbdcb3099be86dbc8U,
  0x3e1ee2003e872ff1U, 0xbcc4d0c6bd810e57U, 0x3df1186e3d0753f2U, 0xbe4d63dfbb7b216aU,
  0x3db416e4bcf2440eU, 0xbe3961193e56810fU, 0xbe920b59bd8fb08cU, 0xbe487e46bd69e9b4U,
  0x3e4bebf73e92f76cU, 0xbdbd27b53b8c441cU, 0xbcb68792bd1d601cU, 0xbda45e563c105677U,
  0x3b1001263ca01fddU, 0xbda9df4fbdeab579U, 0xbdb610643ca41ff4U, 0x3d5b7e633e068d3cU,
  0xbf19421cbeb403a8U, 0xbdbb303f3cf6df5cU, 0x3ea48fd33cc2db57U, 0xbd666875bceeec62U,
  0x3db086c13d9634b0U, 0xbd23d73ebd22098dU, 0x3e34b9563d254c90U, 0x3d87e1a33de775d8U,
  0x3d214e7dbcc87ad8U, 0x3cb294ea3e6045d8U, 0x3ca1ac6fbcaff8b4U, 0xbd17dc893d5e11b8U,
  0x3c48edf5be44a2abU, 0x3d0f534a3d31b2f6U, 0xbdb681d6bccd35f5U, 0xbe8a12d53e5f463aU,
  0x3e09890d3e16e3d4U, 0x3dc3c71c3e083f28U, 0xbd02b411bded5f18U, 0x3ddfefa03d7aafddU,
  0xbc4aee52bd8e6561U, 0x3ced441a3d62dea3U, 0xbebf96e5bdfa55c2U, 0xbe998005be3aba67U,
  0xbd4124143db1b019U, 0x3ddc8c113e20194cU, 0xbdaa5958be85416dU, 0x3d4adc793da05689U,
  0xbd74a6753e11cdcbU, 0x3d39bd7ebc0c5c78U, 0xbe681775be02076dU, 0x3d0409dc3d1ee588U,
  0x3d92c31fbca6b1a9U, 0x3d958ea23d808809U, 0x3c1cbb183d98448eU, 0xbcaa87f23d82b792U,
  0xbe84593bbd94fdc2U, 0x3db438f0be1aec09U, 0xbe2390abbe48abc2U, 0xbaf2135e3d619e88U,
  0xbe24ed7abd297307U, 0x3db1627b3e6ea5a7U, 0xbd9c749cbcdbccffU, 0x3e0e6490bd915d44U,
  0x3dc4de5fbd6aff6fU, 0x3dae21533de07937U, 0x3e2852d13d802baaU, 0x3dab90593ecaf9aeU,
  0x3e04f8833e1885a4U, 0x3b7c0083bdd0b78aU, 0xbdd5e59abd589421U, 0x3d810b72be0c71fcU,
  0xbe77b9f4bde9ecf6U, 0x3df28501be1886e1U, 0xbe219f6cbf006b14U, 0x3e8291663dbe6c71U,
  0xbe50eb60be47b5faU, 0x3de6120a3d70937bU, 0xbd88cd27bdcc84a0U, 0x3d86d878bc7c2aacU,
  0x3e7daf3a3e05d249U, 0x3d56310fbda7d90cU, 0x3caf0cf83d0ab0b4U, 0x3daf4b2f3d6559f3U,
  0xbd059a583ea07838U, 0xbe19db293d0a8dd3U, 0x3d20ef56be1cc231U, 0x3cc85c4c3d9ed9f2U,
  0xbe495a0fbe5ca5a8U, 0xbea8d917bed2fd1fU, 0xbe551a66bf03fac3U, 0xbeb5ff9abf0086cfU,
  0xbbf1df7c3e9a2bd6U, 0x3db372303da899f2U, 0xbedf2723be483c8dU, 0xbe7daddabe1cf10cU,
  0xbe2b093dbe78099fU, 0x3cdc3ec93d442de8U, 0xbc80f1a2be84d7fdU, 0x3cf933553da4b4ccU,
  0x3d0086613e254eb6U, 0xbc71c2db3cf2fcc5U, 0x3d6d47adbd51b7c4U, 0xbbafe5bfbc30ab90U,
  0xbdd2e20c3cffe47dU, 0xbeba1fa73d5f62e6U, 0xbd019d54bdc91becU, 0xbe891dffbcccef68U,
  0x3dfe8f253d8e1690U, 0x3ca32f0dbd3de9a6U, 0x3d2492af3e050e9eU, 0xbdf4d49abe7d18f7U,
  0xbc9f839e3db3b5bcU, 0xbd1c9d623e0f1dbbU, 0x3ca0b04f3d8e2310U, 0x3d2b9e4b3dc69f30U,
  0xbdb222e4bcfaef95U, 0x3ccadad4bd7aaa4eU, 0xbe5363903d60a00fU, 0xbdd4f2c53cfb1321U,
  0xbde11c4e3d8baa23U, 0xbd82be8cbcf382b4U, 0xbe54f6f5bc148720U, 0xbd704cb4bdc33e7cU,
  0x3db4f275be54a7cfU, 0xbe17f0d3bd05b441U, 0xbdea76f2be1cf693U, 0xbdbfd1dc3d37bd5aU,
  0xbe3092a63b3603b4U, 0xbdc7b4f3be5f00a2U, 0x3e9ea9123e5cf785U, 0x3bfa9c503d40ec97U,
  0xbe0f4fd2bf189dc2U, 0xbe1ff8e2be255727U, 0xbe65d513be0ea635U, 0x3e330278be292535U,
  0x3cd8212b3c193bebU, 0x3de11f51bb9e3347U, 0xbcd7da98bdfbd474U, 0xbdb35a74be3faf23U,
  0xbda64d8d3de0768fU, 0xbe774e48b9e9ed52U, 0x3d9dd7743e4d04f6U, 0xbcb63f273e3ff1f7U,
  0xbc78b977be15815fU, 0xbd86bdefbc131540U, 0x3db9f2ea3dfe6e3fU, 0xbd8a73683dee247cU,
  0x3d351e46bdb1e377U, 0xbcf7f848bda1792eU, 0xbde47a3b3c822bfcU, 0xbd9fe35fbe3c96f0U,
  0xbe9c660cbe40609aU, 0xbc1253aabe502a94U, 0xbdb3638fbef5fc4aU, 0xbe75f4c33e6ce123U,
  0x3ce13fb13e2b2079U, 0x3d8b1b1f3df3c33dU, 0x3af24039bba1978bU, 0xbd9895593d05f84dU,
  0xbd2164353dd00c7eU, 0x3db5810c3d92ed42U, 0x3e3666583e19f093U, 0x3da751a63e9babf3U,
  0x3e0854fa3d18bc88U, 0x3cca3a21bdbe74b9U, 0xbdb62053bcf55c7aU, 0xbdb9be5ebe05b1afU,
  0xbe61c415bdf0da2cU, 0x3e8b8c713d14726dU, 0xbe916e1bbc88ff87U, 0x3e37fddd3e372fe8U,
  0xbdeb0834be15c278U, 0xbbb579fa3cd98187U, 0x3dd8200ebd8d14c0U, 0x3dde94603d3bd769U,
  0xbe1aafa5bd903321U, 0x3ddaba213c4b25adU, 0x3e3deaffbbbd8db5U, 0xbe80a05cbd2f4ea2U,
  0xbe630887be46c0f3U, 0xbd7616cfbdab5624U, 0xbe43fe8cbdeca876U, 0xbe068d4dbe12c3beU,
  0xbe08423ebd1c24b7U, 0x3c9339033d737182U, 0xbdb532bd3ddb3b63U, 0xbd242d183d5b2790U,
  0x3d2bf62ebdbf3f19U, 0x3d018fa73cd23dedU, 0x3d23e1223d4ad75eU, 0xbe8a92ff3d88ad2dU,
  0x3ddc47ff3d9ca5a3U, 0xbe8c7c7ebe8ff925U, 0xbd9c83703e70d53cU, 0x3d0e6db2bcebdd88U,
  0xbdaeb696bdab1a91U, 0xbde6f1813ce55043U, 0x3cad12c63de9a22cU, 0xbe0af2993d88bd20U,
  0xbcb083cabcf5ebcaU, 0xbd97a7b6bd68fe47U, 0xbab91580bd70a3c6U, 0xbd91fdc1bdb7c31cU,
  0x3c22645a3dbefec9U, 0x3de1aff23ce6718eU, 0xbe0c02253d9f9ec6U, 0xbd64d9163d0238e1U,
  0xbd920846bd8f63eaU, 0xbe964d2f3d9ab38fU, 0xbdde14623dc2e44cU, 0xbe814e4c3d473c84U,
  0xbc11ac6abd0add2eU, 0xbd65dc013db810b9U, 0x3e8c9b933dc2706aU, 0x3db8141cbcb3882dU,
  0x3b931ded3d6d6c64U, 0x3d738fff3d6bccbdU, 0xbcd91e52be17c410U, 0xbe91dbcbbe936690U,
  0xbddfc19a3d25b256U, 0x3d5f9819bdb6f52cU, 0xbe34e88439f336eaU, 0xbe70d4ad3c51f5c9U,
  0x3dc24c023d861d85U, 0xbe95ee78bd5e730eU, 0xbcac48753e01991dU, 0xbb999351be2db291U,
  0xbe13ca073d0ca185U, 0xbcfb00173ddc4ca4U, 0x3b90909b3c2c2c8fU, 0x3d913e643e3bcf47U,
  0x3d72431bbe190aadU, 0x3d554b583e255f11U, 0x3d36573c3d9203e2U, 0x3c3a1e173dc04cf7U,
  0xbc101e4bbd78028dU, 0xbde76960be62f551U, 0x3d296462bd576124U, 0x3dc045e3bdb7665fU,
  0x3d8c750abc6deabeU, 0x3d6482e8bd20c579U, 0x3dbea7083de0db95U, 0x3d89c317be27256dU,
  0x3d3a1e23bd824076U, 0x3d608d1fbcaf17e5U, 0x3e4330bb3e4e9b2dU, 0xbe131ddabcb923c2U,
  0x3c00a4ff3e074147U, 0x3e01229b3de05e76U, 0x3e41a79dbd5a7b35U, 0x3daf53683ea72abdU,
  0xba4630ca3c6174d2U, 0xbdf734023cbaddf2U, 0x3dc644e83e5f8f8bU, 0xbe15a569bd33c101U,
  0x3c5f19863e017353U, 0x3a76b77cba720c5cU, 0x3e0f2ae83db8ce8eU, 0xbea69d3cbe7ce014U,
  0x3e2731903e2704cbU, 0xbdf5a1a13de3acf2U, 0xbdc493b7bde19883U, 0xbdfb362cbe9b8b62U,
  0xbd5c9ab5bd8d2399U, 0xbdf74603bdb88e17U, 0xbe1e3660bb296c31U, 0x3def8dfebde48e1fU,
  0x3d599ee0be840891U, 0x3e25e4e8bc819797U, 0x3da87fe33e00752eU, 0xbbe2e8b73d4a6228U,
  0x3da2b6883e0531f4U, 0xbe87fe53be993bc2U, 0xbe5aa3bfbdb38d52U, 0xbdfb5123be993ee8U,
  0x3b9e4cb1bdf5b193U, 0x3d8e27903e0daf6cU, 0xbd3aeedfbda6ee43U, 0xbebff0dbbdab95ceU,
  0x3e0b2d103d6c9010U, 0xbee5da9bbd7ac790U, 0x3dc9ec8b3defe1f2U, 0xbe61b0f9bc84dbc6U,
  0x3d3f397cbe161544U, 0xbe3f49fe3d6a82d4U, 0x3e1fdecdbca16d64U, 0xbdba0f5a3e225a23U,
  0x3cd6f0d0bc3ba216U, 0x3d5ec4f23e0e4b1fU, 0xbee65a42be9550ecU, 0xbe165697bd833dcaU,
  0x3cf615c5be67b4b8U, 0xbe80be88be054b1dU, 0xbd05566b3d52170eU, 0xbe2588d9be7a536aU,
  0xbd0696be3c9c4ac1U, 0x3d37cf453e3bd55fU, 0xbdb64c0cbd162602U, 0x3dc40c0f3df15c97U,
  0xbd9c6078bcfdfa99U, 0xbd9f8bd7bd918d30U, 0x3d02a08d3da0084fU, 0x3e0a6f263d41d0d6U,
  0x3e11bd763e5a2027U, 0x3e1a9b96be1d50e8U, 0xbe99da85be013ea0U, 0x3cee3a8bbdab109eU,
  0xbc6f3a4fbe286035U, 0xbc9f71003dcbbe2dU, 0xbe7a0871be61b77cU, 0x3d29e8b73d9c22ecU,
  0x3e122505bd8649fbU, 0x3e39edfabe00072bU, 0x3e306fe23dfbffb8U, 0x3cb09107be0d67d0U,
  0x3e83899f3dfc67daU, 0x3dc1341d3cc37e74U, 0x3c8202543de57d76U, 0xbc2225f53e0763d7U,
  0x3d286a12bdf4c1c4U, 0xbe57dc073d927357U, 0xbe1d9347beb08993U, 0xbe6dd768be2c2123U,
  0xbe5cc292be011903U, 0x3dbb8748bcf89782U, 0xbe13df443d42821fU, 0x3c83714f3dc0d831U,
  0x3dbd4cdbbd1c1b30U, 0xbee1b0c1bc94700aU, 0x3dadaf793dbecbb7U, 0xbf0108e0be52a487U,
  0x3e3b38b2bd94eb30U, 0x3e16298c3c1fdcf3U, 0x3c68d5ee3df7902fU, 0xbe902042bdece449U,
  0x3de8e2503d79a3f2U, 0xbe28a07fbe61af3eU, 0x3d1754c63daed6a1U, 0xbe0eb790bd66848fU,
  0xbf2dd5d6beb05ed8U, 0xbda716ffbe46b7fcU, 0xbe4a145bbe213b7cU, 0x3deeaaf93e2736b1U,
  0xbe201aaabe240f9fU, 0x3cbcf5643de4c257U, 0x3b883a59be30ba94U, 0x3cd08db53e10834fU,
  0xbdfa07503bbe1fceU, 0xbe2ffa85be0eb151U, 0xbe420a3d3d758a9fU, 0x3cc348acbe649875U,
  0x3e029c863e272316U, 0x3d89bc1bbdb2bc87U, 0x3dca32b9bd3a9e70U, 0x3da641e7be43a3adU,
  0xbb3da9403c40a262U, 0xbd3245f03d409948U, 0xbce68462be763797U, 0xbe8c27c6be402e0eU,
  0xbd608d4ebd80fabcU, 0xbe95ce26be1933b8U, 0xbde6aeaebd747ab3U, 0x3dd5f5babcdc8c7dU,
  0x3d64a9d2bce299c1U, 0xbe093d7dbda46d6fU, 0x3e2ff34d3e297d08U, 0xbd906065beb2e2e2U,
  0xbe5a3682be962c3cU, 0x3d43341cbdd9cb94U, 0x3c3258efbe2d247eU, 0xbe9f031abd172edaU,
  0x3cf41ec13e292650U, 0x3e0e1a6d3d12db56U, 0x3d6ee7f0bbbe6948U, 0xbd0edff1bd2e7f63U,
  0xbc869687bc257023U, 0xbe094eddbb83cbd3U, 0x3d10a46b3b23dec7U, 0xbd839e0dbdc52ac0U,
  0x3c8f90363d992f7eU, 0xbe92e197be986c05U, 0xbd6724533e0da357U, 0x3d90e556bd334631U,
  0xbe048197be36d0c1U, 0x3e2bfe8bbd47c859U, 0x3dfb6545bdfaac8cU, 0x3e0822df3e78189eU,
  0x3dbcc455be0fa49dU, 0xbc96313cbd14819aU, 0x3e110e053e483a84U, 0xbce82a163dc38e22U,
  0x3d3d14183e11cb7bU, 0xbd843de0bc4b48e1U, 0xbe0316debd39bbb9U, 0x3cb0c83dbd40da60U,
  0xbd85a8513b866a0dU, 0xbea74313bdfea99fU, 0xbe05b8693d652ff6U, 0xbd8d5a603d09bd9aU,
  0xbcc7ce9c3d87e724U, 0x3caffa223e8338d9U, 0x3b4f38d4be9a9c96U, 0xbcc978da3e1b262dU,
  0x3e5c6423bec3076cU, 0xbb42ead43da6004aU, 0xbc3ea880bde862e8U, 0xbd443e58bdf29475U,
  0x3bb51fddbdf4d93cU, 0xbdac2183bd3b3b39U, 0xbe53bc72be8e9121U, 0xbdb68e1dbe1bc9b5U,
  0xbb974a6ebe56d5d9U, 0x3d44d022be256e2fU, 0x3dcc020f3d6c5e5dU, 0x3ca16441bd0d06e5U,
  0x3d17d1463e177f5cU, 0x3a8e301d3e04d69cU, 0xbe2be5133d4032ceU, 0x3e135a25bd19e4b0U,
  0x3dc7e9a4bafe0432U, 0xbb2c2b8dbc7bb80aU, 0xbd9473b43c009685U, 0xbca699e2bcb37cffU,
  0xbd1a74d73dc5de24U,
};


ai_handle g_network_weights_table[1 + 2] = {
  AI_HANDLE_PTR(AI_MAGIC_MARKER),
  AI_HANDLE_PTR(s_network_weights_array_u64),
  AI_HANDLE_PTR(AI_MAGIC_MARKER),
};

